{
  "<pad>": 0,
  "<unk>": 1,
  "<sos>": 2,
  "<eos>": 3,
  "آہٹ</w>": 4,
  "سی</w>": 5,
  "کوئی</w>": 6,
  "آئے</w>": 7,
  "تو</w>": 8,
  "لگتا</w>": 9,
  "ہے</w>": 10,
  "کہ</w>": 11,
  "تم</w>": 12,
  "ہو</w>": 13,
  "سایہ</w>": 14,
  "لہ": 15,
  "رائے</w>": 16,
  "جب</w>": 17,
  "شاخ</w>": 18,
  "ہاتھ</w>": 19,
  "لگاتے</w>": 20,
  "ہی</w>": 21,
  "چمن</w>": 22,
  "میں</w>": 23,
  "شرمائے</w>": 24,
  "لچک</w>": 25,
  "جائے</w>": 26,
  "صندل</w>": 27,
  "سے</w>": 28,
  "مہ": 29,
  "کتی</w>": 30,
  "ہوئی</w>": 31,
  "پر</w>": 32,
  "کیف</w>": 33,
  "ہوا</w>": 34,
  "کا</w>": 35,
  "جھونکا</w>": 36,
  "ٹکرائے</w>": 37,
  "اوڑ": 38,
  "ھے</w>": 39,
  "ہوئے</w>": 40,
  "تاروں</w>": 41,
  "کی</w>": 42,
  "چمکتی</w>": 43,
  "چادر</w>": 44,
  "ندی</w>": 45,
  "بل</w>": 46,
  "کھائے</w>": 47,
  "رات</w>": 48,
  "گئے</w>": 49,
  "کرن</w>": 50,
  "میرے</w>": 51,
  "برابر</w>": 52,
  "چپ</w>": 53,
  "چاپ</w>": 54,
  "سو</w>": 55,
  "موج</w>": 56,
  "گل</w>": 57,
  "صبا</w>": 58,
  "سحر</w>": 59,
  "لگتی</w>": 60,
  "سر</w>": 61,
  "پا</w>": 62,
  "تک</w>": 63,
  "وہ</w>": 64,
  "سماں</w>": 65,
  "نظر</w>": 66,
  "ہم</w>": 67,
  "نے</w>": 68,
  "ہر</w>": 69,
  "گام</w>": 70,
  "پہ</w>": 71,
  "سج": 72,
  "دوں</w>": 73,
  "کے</w>": 74,
  "جلائے</w>": 75,
  "ہیں</w>": 76,
  "چراغ</w>": 77,
  "اب</w>": 78,
  "ہمیں</w>": 79,
  "تیری</w>": 80,
  "گلی</w>": 81,
  "راہ</w>": 82,
  "گزر</w>": 83,
  "لمحے</w>": 84,
  "بسی</w>": 85,
  "تری</w>": 86,
  "یادوں</w>": 87,
  "مہک</w>": 88,
  "آج</w>": 89,
  "خوشبو</w>": 90,
  "سفر</w>": 91,
  "جل</w>": 92,
  "گیا</w>": 93,
  "اپنا</w>": 94,
  "نشیمن</w>": 95,
  "بات</w>": 96,
  "نہیں</w>": 97,
  "دیکھنا</w>": 98,
  "یہ</w>": 99,
  "آگ</w>": 100,
  "کدھر</w>": 101,
  "ساری</w>": 102,
  "دنیا</w>": 103,
  "غریبوں</w>": 104,
  "لہو</w>": 105,
  "بہتا</w>": 106,
  "زمیں</w>": 107,
  "مجھ</w>": 108,
  "کو</w>": 109,
  "مرے</w>": 110,
  "خون</w>": 111,
  "تر</w>": 112,
  "آ": 113,
  "سو": 114,
  "دہ</w>": 115,
  "اہل</w>": 116,
  "سیاست</w>": 117,
  "سوا</w>": 118,
  "صدی</w>": 119,
  "دشمن</w>": 120,
  "ارباب</w>": 121,
  "ہنر</w>": 122,
  "واقعہ</w>": 123,
  "شہر</w>": 124,
  "کل</w>": 125,
  "ایسا</w>": 126,
  "نہ</w>": 127,
  "اخبار</w>": 128,
  "دفتر</w>": 129,
  "خبر</w>": 130,
  "لکھنو</w>": 131,
  "کیا</w>": 132,
  "گلیوں</w>": 133,
  "مقدر</w>": 134,
  "تھا</w>": 135,
  "یہی</w>": 136,
  "خاک</w>": 137,
  "بسر</w>": 138,
  "ط": 139,
  "لو": 140,
  "ع</w>": 141,
  "صبح</w>": 142,
  "نظریں</w>": 143,
  "اٹھا</w>": 144,
  "دیکھ</w>": 145,
  "ذرا</w>": 146,
  "شکست</w>": 147,
  "ظلمت</w>": 148,
  "شب</w>": 149,
  "مسکرا</w>": 150,
  "غم</w>": 151,
  "بہار</w>": 152,
  "و</w>": 153,
  "یار</w>": 154,
  "سب</w>": 155,
  "کچھ</w>": 156,
  "جہاں</w>": 157,
  "بھی</w>": 158,
  "دل</w>": 159,
  "لگا</w>": 160,
  "کون</w>": 161,
  "غ": 162,
  "ات</w>": 163,
  "لے</w>": 164,
  "آئی</w>": 165,
  "ہمارے</w>": 166,
  "زخم</w>": 167,
  "تمنا</w>": 168,
  "آ</w>": 169,
  "ایک</w>": 170,
  "سمت</w>": 171,
  "اک</w>": 172,
  "آفتاب</w>": 173,
  "ابھ": 174,
  "رے</w>": 175,
  "گا</w>": 176,
  "دیر</w>": 177,
  "حرم</w>": 178,
  "بجھا</w>": 179,
  "وجود</w>": 180,
  "عشق</w>": 181,
  "تاریخ</w>": 182,
  "پتہ</w>": 183,
  "چلے</w>": 184,
  "ورق</w>": 185,
  "الٹ</w>": 186,
  "ا": 187,
  "رض</w>": 188,
  "سما</w>": 189,
  "ملے</w>": 190,
  "اور</w>": 191,
  "قبول</w>": 192,
  "حوصلے</w>": 193,
  "وفا</w>": 194,
  "رشتہ</w>": 195,
  "گریباں</w>": 196,
  "میری</w>": 197,
  "طرف</w>": 198,
  "بھا": 199,
  "کرو</w>": 200,
  "دور</w>": 201,
  "غز": 202,
  "الوں</w>": 203,
  "طرح</w>": 204,
  "چاہا</w>": 205,
  "تمہیں</w>": 206,
  "چاہنے</w>": 207,
  "والوں</w>": 208,
  "خود": 209,
  "ب": 210,
  "خود</w>": 211,
  "نیند</w>": 212,
  "آنکھوں</w>": 213,
  "گھ": 214,
  "لی</w>": 215,
  "جاتی</w>": 216,
  "مہکی</w>": 217,
  "ترے</w>": 218,
  "با": 219,
  "لوں</w>": 220,
  "تیرے</w>": 221,
  "بن</w>": 222,
  "ہاتھوں</w>": 223,
  "ایا": 224,
  "غ</w>": 225,
  "خوبصورت</w>": 226,
  "مگر</w>": 227,
  "زہر</w>": 228,
  "پی": 229,
  "اس</w>": 230,
  "زیادہ</w>": 231,
  "ن": 232,
  "ر": 233,
  "می</w>": 234,
  "بر": 235,
  "توں</w>": 236,
  "زخموں</w>": 237,
  "چھو": 238,
  "ا</w>": 239,
  "گ": 240,
  "گنگنا": 241,
  "تے</w>": 242,
  "کبھی</w>": 243,
  "ان</w>": 244,
  "سینوں</w>": 245,
  "خاطر</w>": 246,
  "جو</w>": 247,
  "کتے</w>": 248,
  "شو": 249,
  "زلفیں</w>": 250,
  "آنکھیں</w>": 251,
  "ابرو</w>": 252,
  "لب</w>": 253,
  "مشہور</w>": 254,
  "مث": 255,
  "مایوس</w>": 256,
  "اے</w>": 257,
  "دوراں</w>": 258,
  "ابھی</w>": 259,
  "درد</w>": 260,
  "چمک": 261,
  "اجا": 262,
  "ملاو</w>": 263,
  "ہزاروں</w>": 264,
  "چہرے</w>": 265,
  "سلگتے</w>": 266,
  "ملا</w>": 267,
  "مری</w>": 268,
  "محنت</w>": 269,
  "صلہ</w>": 270,
  "چند</w>": 271,
  "سکے</w>": 272,
  "چھالوں</w>": 273,
  "جستجو</w>": 274,
  "کسی</w>": 275,
  "منزل</w>": 276,
  "ٹھہ": 277,
  "رنے</w>": 278,
  "دیا</w>": 279,
  "بھٹک": 280,
  "رہے</w>": 281,
  "آوارہ</w>": 282,
  "خیالوں</w>": 283,
  "زندگی</w>": 284,
  "جس</w>": 285,
  "ترا</w>": 286,
  "پیار</w>": 287,
  "جانے</w>": 288,
  "ناکام</w>": 289,
  "روح</w>": 290,
  "چھپا</w>": 291,
  "لگے</w>": 292,
  "مجھے</w>": 293,
  "بد</w>": 294,
  "دعا</w>": 295,
  "پسند</w>": 296,
  "مدت</w>": 297,
  "داغ</w>": 298,
  "بھلا</w>": 299,
  "آنسووں</w>": 300,
  "بھی": 301,
  "گ</w>": 302,
  "بہت</w>": 303,
  "قریب</w>": 304,
  "آواز</w>": 305,
  "جاوں</w>": 306,
  "بند</w>": 307,
  "تمام</w>": 308,
  "جھان": 309,
  "کتا</w>": 310,
  "کھو</w>": 311,
  "سا</w>": 312,
  "جاتا</w>": 313,
  "ہوں</w>": 314,
  "کرے</w>": 315,
  "برا</w>": 316,
  "سوچتا</w>": 317,
  "ٹوں</w>": 318,
  "اجنبی</w>": 319,
  "میرا</w>": 320,
  "گاوں</w>": 321,
  "پہچان": 322,
  "تا</w>": 323,
  "وقت</w>": 324,
  "رفتار</w>": 325,
  "دکھاتی</w>": 326,
  "بڑا</w>": 327,
  "خوف</w>": 328,
  "بکھر</w>": 329,
  "آدمی</w>": 330,
  "فرد</w>": 331,
  "سانحہ</w>": 332,
  "آدھ</w>": 333,
  "قدم</w>": 334,
  "حساب</w>": 335,
  "رکھ": 336,
  "ئے</w>": 337,
  "تلک</w>": 338,
  "وہی</w>": 339,
  "فاصلہ</w>": 340,
  "حکایت</w>": 341,
  "کشش</w>": 342,
  "رکھتی</w>": 343,
  "زمانہ</w>": 344,
  "غور</w>": 345,
  "سنتا</w>": 346,
  "لاکھ</w>": 347,
  "سہی</w>": 348,
  "شہروں</w>": 349,
  "ف": 350,
  "ٹ</w>": 351,
  "پا": 352,
  "تھوں</w>": 353,
  "لاش</w>": 354,
  "کس</w>": 355,
  "لیے</w>": 356,
  "پھرتے</w>": 357,
  "انہیں</w>": 358,
  "باتوں</w>": 359,
  "سنتے</w>": 360,
  "آتی</w>": 361,
  "ہنسی</w>": 362,
  "بے</w>": 363,
  "ایمان</w>": 364,
  "تھے</w>": 365,
  "جن</w>": 366,
  "موسم</w>": 367,
  "کم</w>": 368,
  "ہوتی</w>": 369,
  "مفت</w>": 370,
  "الزام</w>": 371,
  "رکھ</w>": 372,
  "دیتے</w>": 373,
  "برسا": 374,
  "زلف</w>": 375,
  "چھن": 376,
  "تی</w>": 377,
  "بدن</w>": 378,
  "تاب": 379,
  "شیں</w>": 380,
  "ہنس</w>": 381,
  "کرتے</w>": 382,
  "اکثر</w>": 383,
  "چاندنی</w>": 384,
  "راتوں</w>": 385,
  "شرم</w>": 386,
  "فخر</w>": 387,
  "ملا": 388,
  "قات": 389,
  "وں</w>": 390,
  "لوگ</w>": 391,
  "محبوب</w>": 392,
  "طالب</w>": 393,
  "مط": 394,
  "لوب</w>": 395,
  "طوفان</w>": 396,
  "لیکن</w>": 397,
  "سفی": 398,
  "کہیں</w>": 399,
  "ڈوب</w>": 400,
  "پکا": 401,
  "رو</w>": 402,
  "لق": 403,
  "ب</w>": 404,
  "نام</w>": 405,
  "منسوب</w>": 406,
  "صورت</w>": 407,
  "پرست": 408,
  "ار</w>": 409,
  "مرغ": 410,
  "وب</w>": 411,
  "الفاظ</w>": 412,
  "اظہار</w>": 413,
  "محبت</w>": 414,
  "طری": 415,
  "قے</w>": 416,
  "نظروں</w>": 417,
  "مع": 418,
  "ی": 419,
  "عہد</w>": 420,
  "صی": 421,
  "رت</w>": 422,
  "نقا": 423,
  "د</w>": 424,
  "بڑے</w>": 425,
  "مر": 426,
  "ع": 427,
  "اتنا</w>": 428,
  "گھبرا": 429,
  "نئی</w>": 430,
  "طرز</w>": 431,
  "ادا</w>": 432,
  "بدلے</w>": 433,
  "اس": 434,
  "دامن</w>": 435,
  "کشاں</w>": 436,
  "میاں</w>": 437,
  "زور</w>": 438,
  "ہمارا</w>": 439,
  "کہاں</w>": 440,
  "تھک</w>": 441,
  "کارواں</w>": 442,
  "رتا</w>": 443,
  "وہیں</w>": 444,
  "نیا</w>": 445,
  "گماں</w>": 446,
  "یقیں</w>": 447,
  "یوں</w>": 448,
  "درمیاں</w>": 449,
  "بدلتے</w>": 450,
  "رہتے</w>": 451,
  "بس</w>": 452,
  "سال</w>": 453,
  "داستاں</w>": 454,
  "آزما": 455,
  "ئ": 456,
  "شوں</w>": 457,
  "ہجوم</w>": 458,
  "عمر</w>": 459,
  "امتحاں</w>": 460,
  "گھو": 461,
  "م": 462,
  "رہنا</w>": 463,
  "آگے</w>": 464,
  "لمحہ</w>": 465,
  "حیرت</w>": 466,
  "لفظ</w>": 467,
  "ساتھ</w>": 468,
  "دیں</w>": 469,
  "ایسے</w>": 470,
  "ہاں</w>": 471,
  "جان</w>": 472,
  "حیا</w>": 473,
  "اقرار</w>": 474,
  "جتنے</w>": 475,
  "پہلے</w>": 476,
  "خوش</w>": 477,
  "چش": 478,
  "موں</w>": 479,
  "چو": 480,
  "کنا</w>": 481,
  "سوئی</w>": 482,
  "ہوشیار</w>": 483,
  "جاتے</w>": 484,
  "اچھے</w>": 485,
  "کہہ</w>": 486,
  "پوچھے</w>": 487,
  "پوچھنے</w>": 488,
  "والے</w>": 489,
  "بیمار</w>": 490,
  "قطرہ</w>": 491,
  "صرف</w>": 492,
  "اپنے</w>": 493,
  "شکل</w>": 494,
  "دکھائی</w>": 495,
  "تب</w>": 496,
  "خوں</w>": 497,
  "بار</w>": 498,
  "کتنی</w>": 499,
  "پڑے</w>": 500,
  "دو": 501,
  "تنہائی</w>": 502,
  "ملنے</w>": 503,
  "آیا</w>": 504,
  "انکار</w>": 505,
  "نقصان</w>": 506,
  "نف": 507,
  "سمجھ": 508,
  "اتے</w>": 509,
  "یارو</w>": 510,
  "کاروبار</w>": 511,
  "محفل</w>": 512,
  "چھائی</w>": 513,
  "خاموش</w>": 514,
  "شعر</w>": 515,
  "سنا": 516,
  "یا</w>": 517,
  "لوگوں</w>": 518,
  "دار</w>": 519,
  "سوچو</w>": 520,
  "جانو</w>": 521,
  "چاہو</w>": 522,
  "رنگ</w>": 523,
  "بھ": 524,
  "نقشہ</w>": 525,
  "کھینچا</w>": 526,
  "خا": 527,
  "تیار</w>": 528,
  "دی": 529,
  "ش</w>": 530,
  "پر": 531,
  "سدھ": 532,
  "ارے</w>": 533,
  "پڑا</w>": 534,
  "نظ": 535,
  "چھوڑی</w>": 536,
  "غزل": 537,
  "یں</w>": 538,
  "گی": 539,
  "بی": 540,
  "و": 541,
  "پار</w>": 542,
  "تجھ</w>": 543,
  "لایا</w>": 544,
  "دن</w>": 545,
  "خوابوں</w>": 546,
  "گنوا": 547,
  "نیکی</w>": 548,
  "جرم</w>": 549,
  "عی": 550,
  "بوں</w>": 551,
  "چھپایا</w>": 552,
  "دکھا</w>": 553,
  "لو</w>": 554,
  "آپ</w>": 555,
  "دکھایا</w>": 556,
  "مدتوں</w>": 557,
  "ترک</w>": 558,
  "رویا</w>": 559,
  "قرض</w>": 560,
  "چ": 561,
  "کایا</w>": 562,
  "پتا</w>": 563,
  "تلا": 564,
  "فی</w>": 565,
  "شاعری</w>": 566,
  "معلوم</w>": 567,
  "امانت</w>": 568,
  "رہتا</w>": 569,
  "رہتی</w>": 570,
  "تمہارے</w>": 571,
  "پاس</w>": 572,
  "آتا</w>": 573,
  "تنہا</w>": 574,
  "چاہے</w>": 575,
  "سچ</w>": 576,
  "بو": 577,
  "بارے</w>": 578,
  "مسک": 579,
  "را": 580,
  "جھوٹا</w>": 581,
  "ہونٹوں</w>": 582,
  "دہ": 583,
  "پی</w>": 584,
  "کر</w>": 585,
  "پیاسا</w>": 586,
  "تجھے</w>": 587,
  "بانہوں</w>": 588,
  "بھر</w>": 589,
  "لینے</w>": 590,
  "خواہش</w>": 591,
  "رتی</w>": 592,
  "اپنی</w>": 593,
  "رسوا</w>": 594,
  "حوصلہ</w>": 595,
  "شک": 596,
  "نوں</w>": 597,
  "نا</w>": 598,
  "جبیں</w>": 599,
  "دیوانہ</w>": 600,
  "بنے</w>": 601,
  "سن</w>": 602,
  "لیا</w>": 603,
  "جگہ</w>": 604,
  "پہل</w>": 605,
  "سنائی</w>": 606,
  "احسان</w>": 607,
  "حسینوں</w>": 608,
  "اٹھائے</w>": 609,
  "سمجھ</w>": 610,
  "خدا</w>": 611,
  "کہا</w>": 612,
  "ورنہ</w>": 613,
  "کہی</w>": 614,
  "اتنے</w>": 615,
  "کرنے</w>": 616,
  "سنبھال</w>": 617,
  "حد</w>": 618,
  "گزرنے</w>": 619,
  "حقیق": 620,
  "مطلب</w>": 621,
  "فرض</w>": 622,
  "آن</w>": 623,
  "ٹوٹ": 624,
  "عقی": 625,
  "سلسلے</w>": 626,
  "جیسے</w>": 627,
  "بکھرنے</w>": 628,
  "چشم</w>": 629,
  "رنا</w>": 630,
  "محال</w>": 631,
  "تیرا</w>": 632,
  "کمال</w>": 633,
  "مہر</w>": 634,
  "ماہ</w>": 635,
  "کائنات</w>": 636,
  "ات": 637,
  "سنبھ": 638,
  "الا</w>": 639,
  "گو</w>": 640,
  "ڈ": 641,
  "دلی</w>": 642,
  "گئیں</w>": 643,
  "کوچ": 644,
  "رو": 645,
  "نق": 646,
  "جھکا</w>": 647,
  "یاد</w>": 648,
  "در</w>": 649,
  "دیوار</w>": 650,
  "سائے</w>": 651,
  "آبگی": 652,
  "ٹکرا</w>": 653,
  "پائے</w>": 654,
  "کوہ": 655,
  "سا": 656,
  "روں</w>": 657,
  "حوادث</w>": 658,
  "سنگ</w>": 659,
  "ری": 660,
  "زوں</w>": 661,
  "خز": 662,
  "ف</w>": 663,
  "کتنے</w>": 664,
  "ہیرے</w>": 665,
  "چن</w>": 666,
  "لائے</w>": 667,
  "حالات</w>": 668,
  "واسطے</w>": 669,
  "برائے</w>": 670,
  "جانب</w>": 671,
  "دیکھا</w>": 672,
  "سنوا": 673,
  "را</w>": 674,
  "ارا</w>": 675,
  "چھو</w>": 676,
  "چونک</w>": 677,
  "اٹھتا</w>": 678,
  "پلکوں</w>": 679,
  "اشکوں</w>": 680,
  "لکی": 681,
  "ر</w>": 682,
  "آنچل</w>": 683,
  "کنا": 684,
  "خلش</w>": 685,
  "دے</w>": 686,
  "رہ</w>": 687,
  "جا</w>": 688,
  "گوارا</w>": 689,
  "بھیک</w>": 690,
  "لاکھوں</w>": 691,
  "گزارا</w>": 692,
  "عذ": 693,
  "ابوں</w>": 694,
  "سلسلہ</w>": 695,
  "رہا</w>": 696,
  "جینے</w>": 697,
  "دیوانے</w>": 698,
  "سخت</w>": 699,
  "مرحلہ</w>": 700,
  "چلو</w>": 701,
  "جیتا</w>": 702,
  "عقل</w>": 703,
  "ہار</w>": 704,
  "سکی</w>": 705,
  "مزے</w>": 706,
  "مقا": 707,
  "بلہ</w>": 708,
  "ذات</w>": 709,
  "گم</w>": 710,
  "سکا</w>": 711,
  "پھر</w>": 712,
  "چھیڑ</w>": 713,
  "لا": 714,
  "تھی</w>": 715,
  "دلوں</w>": 716,
  "معاملہ</w>": 717,
  "می": 718,
  "کشی</w>": 719,
  "عادت</w>": 720,
  "تلخ</w>": 721,
  "حقیقت</w>": 722,
  "فتنۂ</w>": 723,
  "جو": 724,
  "شورش</w>": 725,
  "جذبات</w>": 726,
  "بغیر</w>": 727,
  "قیامت</w>": 728,
  "جوانی</w>": 729,
  "قسم</w>": 730,
  "شرارت</w>": 731,
  "اچھا</w>": 732,
  "تقاضا</w>": 733,
  "خیال</w>": 734,
  "جمال</w>": 735,
  "پل</w>": 736,
  "اٹھ": 737,
  "اٹھ</w>": 738,
  "جائیں</w>": 739,
  "انجمن</w>": 740,
  "سونا</w>": 741,
  "روش</w>": 742,
  "جدا</w>": 743,
  "ہماری</w>": 744,
  "جھگڑا</w>": 745,
  "اعتبار</w>": 746,
  "دھوکے</w>": 747,
  "بھروسا</w>": 748,
  "لہجہ</w>": 749,
  "بنا</w>": 750,
  "کریں</w>": 751,
  "سامنے</w>": 752,
  "تماشا</w>": 753,
  "انعام</w>": 754,
  "خطاب</w>": 755,
  "ویسے</w>": 756,
  "س": 757,
  "فا": 758,
  "رش": 759,
  "اک": 760,
  "ٹھا</w>": 761,
  "پوچھ</w>": 762,
  "روزگار</w>": 763,
  "گھونٹ</w>": 764,
  "کڑ": 765,
  "وا</w>": 766,
  "شخص</w>": 767,
  "پریشان</w>": 768,
  "بدر</w>": 769,
  "بھنور</w>": 770,
  "تجا": 771,
  "ہل</w>": 772,
  "کہے</w>": 773,
  "خوشی</w>": 774,
  "ت": 775,
  "جینا</w>": 776,
  "نشاط</w>": 777,
  "صحبت</w>": 778,
  "رنداں</w>": 779,
  "غنیمت</w>": 780,
  "آشوب</w>": 781,
  "خطر</w>": 782,
  "کسے</w>": 783,
  "حشر</w>": 784,
  "ہوگا</w>": 785,
  "ڈر</w>": 786,
  "تند</w>": 787,
  "پاوں</w>": 788,
  "ٹک</w>": 789,
  "سکیں</w>": 790,
  "کھڑا</w>": 791,
  "شجر</w>": 792,
  "جہان</w>": 793,
  "نو</w>": 794,
  "مکمل</w>": 795,
  "نگار</w>": 796,
  "مختصر</w>": 797,
  "دیدہ</w>": 798,
  "حسن</w>": 799,
  "بکھ": 800,
  "سنور": 801,
  "روشنی</w>": 802,
  "طوف": 803,
  "انوں</w>": 804,
  "دریا</w>": 805,
  "چاند</w>": 806,
  "اترتا</w>": 807,
  "راستے</w>": 808,
  "رہی</w>": 809,
  "بازو</w>": 810,
  "گزرتا</w>": 811,
  "مٹ</w>": 812,
  "سمی": 813,
  "ٹا</w>": 814,
  "اندھیرے</w>": 815,
  "سورج</w>": 816,
  "سینے</w>": 817,
  "ابھرتا</w>": 818,
  "گے</w>": 819,
  "گی</w>": 820,
  "اوقات</w>": 821,
  "آئیں</w>": 822,
  "ملیں</w>": 823,
  "آخر</w>": 824,
  "تقریب</w>": 825,
  "ملاقات</w>": 826,
  "ناوک</w>": 827,
  "بوند</w>": 828,
  "مدا": 829,
  "چاہیں</w>": 830,
  "سات</w>": 831,
  "بڑھتے</w>": 832,
  "بیٹھ</w>": 833,
  "سوچیں</w>": 834,
  "جسم</w>": 835,
  "آوارگی</w>": 836,
  "مت</w>": 837,
  "کہو</w>": 838,
  "سکتے</w>": 839,
  "ایسی</w>": 840,
  "ہٹ</w>": 841,
  "سنو</w>": 842,
  "گنی</w>": 843,
  "دیوانوں</w>": 844,
  "دیوانگی</w>": 845,
  "کٹ</w>": 846,
  "زنجیریں</w>": 847,
  "آزاد</w>": 848,
  "تیز</w>": 849,
  "اٹھتے</w>": 850,
  "آتے</w>": 851,
  "وعدے</w>": 852,
  "موجود</w>": 853,
  "وع": 854,
  "کمی</w>": 855,
  "چھ": 856,
  "ٹ": 857,
  "پھی": 858,
  "تیرگی</w>": 859,
  "ہوگی</w>": 860,
  "قاتل</w>": 861,
  "داماں</w>": 862,
  "کہتے</w>": 863,
  "کا": 864,
  "شہیداں</w>": 865,
  "علاج</w>": 866,
  "چاک</w>": 867,
  "پیراہن</w>": 868,
  "کانٹوں</w>": 869,
  "تر": 870,
  "انے</w>": 871,
  "د": 872,
  "ئیے</w>": 873,
  "لفظوں</w>": 874,
  "قید</w>": 875,
  "لیں</w>": 876,
  "عجب</w>": 877,
  "انداز</w>": 878,
  "زنداں</w>": 879,
  "فنا</w>": 880,
  "سڑ": 881,
  "کوں</w>": 882,
  "مر</w>": 883,
  "انساں</w>": 884,
  "لپ": 885,
  "ٹی</w>": 886,
  "شعلوں</w>": 887,
  "چاہتا</w>": 888,
  "طوفاں</w>": 889,
  "چھلکتے</w>": 890,
  "جام</w>": 891,
  "بھیگی</w>": 892,
  "اتر</w>": 893,
  "ستائے</w>": 894,
  "یاراں</w>": 895,
  "تہذیب</w>": 896,
  "کیسے</w>": 897,
  "راس</w>": 898,
  "اجڑ</w>": 899,
  "ال": 900,
  "اں</w>": 901,
  "شگفتہ</w>": 902,
  "تازگی</w>": 903,
  "دی</w>": 904,
  "مانگا</w>": 905,
  "مشکل</w>": 906,
  "کلی</w>": 907,
  "خلوت</w>": 908,
  "کدے</w>": 909,
  "سن": 910,
  "دھوپ</w>": 911,
  "بخشی</w>": 912,
  "سبز</w>": 913,
  "دانوں</w>": 914,
  "وسعتیں</w>": 915,
  "بخ": 916,
  "پگھ": 917,
  "لتے</w>": 918,
  "آب": 919,
  "شا": 920,
  "ناروا</w>": 921,
  "تق": 922,
  "سیم</w>": 923,
  "قائل</w>": 924,
  "آنسو</w>": 925,
  "کرشمہ</w>": 926,
  "زمانے</w>": 927,
  "درویش</w>": 928,
  "دعا": 929,
  "خیر</w>": 930,
  "ممکن</w>": 931,
  "کام</w>": 932,
  "گیت</w>": 933,
  "لکھ": 934,
  "وائے</w>": 935,
  "چرا</w>": 936,
  "حصے</w>": 937,
  "غبار</w>": 938,
  "کوئے</w>": 939,
  "حیات</w>": 940,
  "کاٹ</w>": 941,
  "تھوڑا</w>": 942,
  "واں</w>": 943,
  "گزار</w>": 944,
  "قرب</w>": 945,
  "قر": 946,
  "‌‌</w>": 947,
  "جاں</w>": 948,
  "پکار</w>": 949,
  "کھلے</w>": 950,
  "فصل</w>": 951,
  "عزیز</w>": 952,
  "کاغذ</w>": 953,
  "قس": 954,
  "متوں</w>": 955,
  "وار</w>": 956,
  "روز</w>": 957,
  "مروت</w>": 958,
  "یقین</w>": 959,
  "وعدۂ</w>": 960,
  "راتیں</w>": 961,
  "گزری</w>": 962,
  "ستاروں</w>": 963,
  "برا": 964,
  "تیں</w>": 965,
  "تسلی</w>": 966,
  "دیتا</w>": 967,
  "دیتی</w>": 968,
  "باتیں</w>": 969,
  "شائستہ</w>": 970,
  "الم</w>": 971,
  "شاید</w>": 972,
  "زدہ</w>": 973,
  "کیوں</w>": 974,
  "حال</w>": 975,
  "کہنا</w>": 976,
  "دلچسپ</w>": 977,
  "کرتی</w>": 978,
  "رہزن</w>": 979,
  "لٹ": 980,
  "دیکھی</w>": 981,
  "جیتے</w>": 982,
  "کھا</w>": 983,
  "لیتے</w>": 984,
  "ما": 985,
  "پوچھو</w>": 986,
  "پڑ": 987,
  "کتابوں</w>": 988,
  "ہواوں</w>": 989,
  "بسا": 990,
  "طیں</w>": 991,
  "سینہ</w>": 992,
  "ناف</w>": 993,
  "کمر</w>": 994,
  "صدیوں</w>": 995,
  "کتنا</w>": 996,
  "کٹھن</w>": 997,
  "بسے</w>": 998,
  "بچا": 999,
  "پھو": 1000,
  "نک": 1001,
  "سوچا</w>": 1002,
  "بیٹھا</w>": 1003,
  "لکھوں</w>": 1004,
  "چھوٹے</w>": 1005,
  "ذہن</w>": 1006,
  "پتھر</w>": 1007,
  "باندھ</w>": 1008,
  "پیچھے</w>": 1009,
  "خواب</w>": 1010,
  "پھرے</w>": 1011,
  "لوٹ</w>": 1012,
  "چلیں</w>": 1013,
  "گھر</w>": 1014,
  "جل": 1015,
  "ن</w>": 1016,
  "بھولیں</w>": 1017,
  "وعدہ</w>": 1018,
  "شکن</w>": 1019,
  "چوٹ</w>": 1020,
  "بائے</w>": 1021,
  "دب": 1022,
  "صنم</w>": 1023,
  "اتنی</w>": 1024,
  "رنج</w>": 1025,
  "مح": 1026,
  "نبھا</w>": 1027,
  "آخری</w>": 1028,
  "چلن</w>": 1029,
  "بیت</w>": 1030,
  "گئی</w>": 1031,
  "بتاو</w>": 1032,
  "غیر</w>": 1033,
  "پاو</w>": 1034,
  "اندھیروں</w>": 1035,
  "نکلنے</w>": 1036,
  "شع": 1037,
  "ل</w>": 1038,
  "جلا": 1039,
  "بوجھ</w>": 1040,
  "اوں</w>": 1041,
  "اکیلا</w>": 1042,
  "کب</w>": 1043,
  "او</w>": 1044,
  "چلی</w>": 1045,
  "ناز</w>": 1046,
  "اٹھاو</w>": 1047,
  "قتل</w>": 1048,
  "تمہاری</w>": 1049,
  "چڑھ": 1050,
  "جی</w>": 1051,
  "بالیں</w>": 1052,
  "جاو</w>": 1053,
  "افق</w>": 1054,
  "اگرچہ</w>": 1055,
  "لتا</w>": 1056,
  "پڑتا</w>": 1057,
  "سوی": 1058,
  "چہرہ</w>": 1059,
  "بس": 1060,
  "سبھی</w>": 1061,
  "بانٹ</w>": 1062,
  "بھو": 1063,
  "خمار</w>": 1064,
  "ادھورا</w>": 1065,
  "شعاع": 1066,
  "سیڑھ": 1067,
  "یاں</w>": 1068,
  "پیہم</w>": 1069,
  "فلک</w>": 1070,
  "ریت</w>": 1071,
  "سل</w>": 1072,
  "ہ": 1073,
  "بچاتے</w>": 1074,
  "مجبور</w>": 1075,
  "نشۂ</w>": 1076,
  "مے</w>": 1077,
  "پیاس</w>": 1078,
  "بجھ": 1079,
  "ی</w>": 1080,
  "تشنگی</w>": 1081,
  "بڑھا</w>": 1082,
  "خرا": 1083,
  "جات</w>": 1084,
  "مل</w>": 1085,
  "نیم</w>": 1086,
  "نگاہی</w>": 1087,
  "اسی</w>": 1088,
  "روا": 1089,
  "یات</w>": 1090,
  "مرکز</w>": 1091,
  "دیدۂ</w>": 1092,
  "خو": 1093,
  "بان</w>": 1094,
  "نسبت</w>": 1095,
  "رکھتے</w>": 1096,
  "خفا</w>": 1097,
  "ہائے</w>": 1098,
  "کوسوں</w>": 1099,
  "مرا</w>": 1100,
  "چھین</w>": 1101,
  "دھڑ": 1102,
  "چلا</w>": 1103,
  "رزق</w>": 1104,
  "دینے</w>": 1105,
  "والا</w>": 1106,
  "مانگ</w>": 1107,
  "تدبیر</w>": 1108,
  "کرنی</w>": 1109,
  "راز</w>": 1110,
  "قدر</w>": 1111,
  "الگ</w>": 1112,
  "سوچوں</w>": 1113,
  "عجیب</w>": 1114,
  "جسے</w>": 1115,
  "سرو": 1116,
  "کار</w>": 1117,
  "نصیب</w>": 1118,
  "حدود</w>": 1119,
  "باہر</w>": 1120,
  "نکل</w>": 1121,
  "رقیب</w>": 1122,
  "دوستی</w>": 1123,
  "مراسم</w>": 1124,
  "چاہ": 1125,
  "خلوص</w>": 1126,
  "چمکتا</w>": 1127,
  "تارا</w>": 1128,
  "دیار</w>": 1129,
  "ح": 1130,
  "بہ</w>": 1131,
  "شیشے</w>": 1132,
  "بھری</w>": 1133,
  "آوے</w>": 1134,
  "بلا</w>": 1135,
  "جادو</w>": 1136,
  "نظری</w>": 1137,
  "جوں</w>": 1138,
  "دبے</w>": 1139,
  "نسیم</w>": 1140,
  "سحری</w>": 1141,
  "گہرے</w>": 1142,
  "سمجھے</w>": 1143,
  "چارہ</w>": 1144,
  "گری</w>": 1145,
  "جگ": 1146,
  "ری</w>": 1147,
  "آداب</w>": 1148,
  "دوانے</w>": 1149,
  "جا": 1150,
  "مہ</w>": 1151,
  "مانگے</w>": 1152,
  "ہری</w>": 1153,
  "راگ</w>": 1154,
  "کیسی</w>": 1155,
  "عشوہ</w>": 1156,
  "لانا</w>": 1157,
  "آسان</w>": 1158,
  "بڑی</w>": 1159,
  "خبری</w>": 1160,
  "نگا": 1161,
  "راں</w>": 1162,
  "چپے</w>": 1163,
  "آنکھ</w>": 1164,
  "صاح": 1165,
  "بو</w>": 1166,
  "پہچان</w>": 1167,
  "کھیل</w>": 1168,
  "وری</w>": 1169,
  "جشن</w>": 1170,
  "فروزاں</w>": 1171,
  "گرم</w>": 1172,
  "ندوں</w>": 1173,
  "چراغاں</w>": 1174,
  "اگر</w>": 1175,
  "دوا</w>": 1176,
  "درماں</w>": 1177,
  "انتہا</w>": 1178,
  "فرا": 1179,
  "عاشق</w>": 1180,
  "شانے</w>": 1181,
  "پریشاں</w>": 1182,
  "بوئے</w>": 1183,
  "لچ": 1184,
  "گلستاں</w>": 1185,
  "بہاروں</w>": 1186,
  "جنوں</w>": 1187,
  "شگ": 1188,
  "فت</w>": 1189,
  "بیتے</w>": 1190,
  "بدل</w>": 1191,
  "تقدیر</w>": 1192,
  "اشعار</w>": 1193,
  "فقط</w>": 1194,
  "سنانے</w>": 1195,
  "ٹھیک</w>": 1196,
  "مٹا</w>": 1197,
  "کلی": 1198,
  "جے</w>": 1199,
  "لگانے</w>": 1200,
  "چیز</w>": 1201,
  "بجھانے</w>": 1202,
  "چبھ": 1203,
  "سجانے</w>": 1204,
  "دیکھوں</w>": 1205,
  "مندر</w>": 1206,
  "پ</w>": 1207,
  "جلانے</w>": 1208,
  "علم</w>": 1209,
  "سودا</w>": 1210,
  "رس": 1211,
  "الے</w>": 1212,
  "کتابیں</w>": 1213,
  "بھلانے</w>": 1214,
  "لگیں</w>": 1215,
  "رسم</w>": 1216,
  "تلے</w>": 1217,
  "چٹ": 1218,
  "دبا</w>": 1219,
  "دری": 1220,
  "چوں</w>": 1221,
  "کھلتے</w>": 1222,
  "نشے</w>": 1223,
  "ڑے</w>": 1224,
  "گلابی</w>": 1225,
  "غزل</w>": 1226,
  "فن</w>": 1227,
  "توڑ</w>": 1228,
  "تباہ</w>": 1229,
  "مزاج</w>": 1230,
  "پایا</w>": 1231,
  "شرر</w>": 1232,
  "اسے</w>": 1233,
  "معاف</w>": 1234,
  "تنگ</w>": 1235,
  "پھول</w>": 1236,
  "سمٹ</w>": 1237,
  "چرا": 1238,
  "بعد</w>": 1239,
  "چھوڑ</w>": 1240,
  "پڑتی</w>": 1241,
  "دال": 1242,
  "چپ": 1243,
  "دینا</w>": 1244,
  "روشن</w>": 1245,
  "چلتے</w>": 1246,
  "رک</w>": 1247,
  "کانوں</w>": 1248,
  "برکھا</w>": 1249,
  "ڑو</w>": 1250,
  "چنچل</w>": 1251,
  "پرو": 1252,
  "ائی</w>": 1253,
  "پ": 1254,
  "پھینک</w>": 1255,
  "دھ": 1256,
  "تپ": 1257,
  "ڑھے</w>": 1258,
  "جلتے</w>": 1259,
  "ش": 1260,
  "ستے</w>": 1261,
  "دا": 1262,
  "کھ": 1263,
  "دا</w>": 1264,
  "تل</w>": 1265,
  "من</w>": 1266,
  "بھید</w>": 1267,
  "بتاوں</w>": 1268,
  "کہوں</w>": 1269,
  "سننا</w>": 1270,
  "رکھے</w>": 1271,
  "ک": 1272,
  "سنے</w>": 1273,
  "پھ": 1274,
  "لنے</w>": 1275,
  "لگتے</w>": 1276,
  "ڈھ": 1277,
  "لکھے</w>": 1278,
  "اوروں</w>": 1279,
  "کئے</w>": 1280,
  "ص": 1281,
  "ہ</w>": 1282,
  "عنو": 1283,
  "قصے</w>": 1284,
  "نا": 1285,
  "ول</w>": 1286,
  "مانوں</w>": 1287,
  "مانا</w>": 1288,
  "پیرہن</w>": 1289,
  "عکس</w>": 1290,
  "معا": 1291,
  "حکمت</w>": 1292,
  "باوجود</w>": 1293,
  "پن</w>": 1294,
  "مطرب</w>": 1295,
  "ندیم</w>": 1296,
  "ساقیا</w>": 1297,
  "کھلا</w>": 1298,
  "کٹے</w>": 1299,
  "پہاڑ</w>": 1300,
  "کوہ</w>": 1301,
  "کن</w>": 1302,
  "اٹھتی</w>": 1303,
  "فضا</w>": 1304,
  "صدا</w>": 1305,
  "قا": 1306,
  "ئق</w>": 1307,
  "ترا": 1308,
  "شی</w>": 1309,
  "اوڑھ</w>": 1310,
  "لیتی</w>": 1311,
  "طل": 1312,
  "سموں</w>": 1313,
  "ردا</w>": 1314,
  "</w>": 1315,
  "کھول</w>": 1316,
  "قبا</w>": 1317,
  "آو</w>": 1318,
  "شمع": 1319,
  "اجالا</w>": 1320,
  "نکلا</w>": 1321,
  "نکلے</w>": 1322,
  "قدموں</w>": 1323,
  "اندوہ</w>": 1324,
  "مجرم</w>": 1325,
  "سزا</w>": 1326,
  "گلو</w>": 1327,
  "شہی": 1328,
  "دست</w>": 1329,
  "دولت</w>": 1330,
  "یاب</w>": 1331,
  "کہیے</w>": 1332,
  "کھو": 1333,
  "ئی</w>": 1334,
  "نگاہیں</w>": 1335,
  "خمی": 1336,
  "پلکیں</w>": 1337,
  "آہوں</w>": 1338,
  "آب</w>": 1339,
  "بان": 1340,
  "سری</w>": 1341,
  "نغمہ</w>": 1342,
  "چیخ</w>": 1343,
  "سکوت</w>": 1344,
  "منکر</w>": 1345,
  "ذوق</w>": 1346,
  "پرستش</w>": 1347,
  "سانس</w>": 1348,
  "رکی</w>": 1349,
  "بیگانہ</w>": 1350,
  "توجہ</w>": 1351,
  "تغافل</w>": 1352,
  "دع": 1353,
  "ت</w>": 1354,
  "ون</w>": 1355,
  "عون</w>": 1356,
  "زاہد</w>": 1357,
  "گردوں</w>": 1358,
  "ست": 1359,
  "رہنے</w>": 1360,
  "دو</w>": 1361,
  "اجل</w>": 1362,
  "فت": 1363,
  "حسرت</w>": 1364,
  "ڈھونڈ": 1365,
  "زندہ</w>": 1366,
  "مد": 1367,
  "وحشت</w>": 1368,
  "اول</w>": 1369,
  "جنون</w>": 1370,
  "واعظ</w>": 1371,
  "بری</w>": 1372,
  "عارض</w>": 1373,
  "ق": 1374,
  "رین</w>": 1375,
  "گلاب</w>": 1376,
  "بندہ</w>": 1377,
  "زبان</w>": 1378,
  "شیریں</w>": 1379,
  "ممنون</w>": 1380,
  "حیدرؔ</w>": 1381,
  "مرگ</w>": 1382,
  "گاہ</w>": 1383,
  "شادی</w>": 1384,
  "شگو": 1385,
  "سیدھا</w>": 1386,
  "بیاباں</w>": 1387,
  "بیٹھے</w>": 1388,
  "غمگیں</w>": 1389,
  "ل": 1390,
  "گری": 1391,
  "لالہ</w>": 1392,
  "ساقی</w>": 1393,
  "ڑ</w>": 1394,
  "شبنم</w>": 1395,
  "خند": 1396,
  "چھپتی</w>": 1397,
  "سیکڑوں</w>": 1398,
  "گنہ</w>": 1399,
  "دھو</w>": 1400,
  "رحمت</w>": 1401,
  "گھٹا</w>": 1402,
  "جھوم</w>": 1403,
  "آئینہ</w>": 1404,
  "سیکھ</w>": 1405,
  "دیکھتا</w>": 1406,
  "جھ": 1407,
  "نظمؔ</w>": 1408,
  "بسان</w>": 1409,
  "خامہ</w>": 1410,
  "سجدے</w>": 1411,
  "خط</w>": 1412,
  "فر": 1413,
  "ماں</w>": 1414,
  "ہمت</w>": 1415,
  "مردانہ</w>": 1416,
  "رستہ</w>": 1417,
  "چل</w>": 1418,
  "سبزۂ</w>": 1419,
  "مرنے</w>": 1420,
  "شریک</w>": 1421,
  "شمع</w>": 1422,
  "کشتہ</w>": 1423,
  "پروانہ</w>": 1424,
  "عیش</w>": 1425,
  "پیمانہ</w>": 1426,
  "اف": 1427,
  "عی</w>": 1428,
  "کھلی</w>": 1429,
  "زلفوں</w>": 1430,
  "شانہ</w>": 1431,
  "طول</w>": 1432,
  "امل</w>": 1433,
  "لگانا</w>": 1434,
  "بزم</w>": 1435,
  "ناتمام</w>": 1436,
  "افسانہ</w>": 1437,
  "لبریز</w>": 1438,
  "بھرا</w>": 1439,
  "پیر</w>": 1440,
  "ز": 1441,
  "ال</w>": 1442,
  "دہر</w>": 1443,
  "ٹھو": 1444,
  "کروں</w>": 1445,
  "پہروں</w>": 1446,
  "آنا</w>": 1447,
  "اترا</w>": 1448,
  "شیشہ</w>": 1449,
  "طاق</w>": 1450,
  "کرتا</w>": 1451,
  "رقص</w>": 1452,
  "سجدۂ</w>": 1453,
  "شکر": 1454,
  "انہ</w>": 1455,
  "ۂ</w>": 1456,
  "ریا</w>": 1457,
  "نشانی</w>": 1458,
  "کفر</w>": 1459,
  "زنار</w>": 1460,
  "سب": 1461,
  "حۂ</w>": 1462,
  "صد</w>": 1463,
  "دانہ</w>": 1464,
  "رندان</w>": 1465,
  "کدہ</w>": 1466,
  "خضر</w>": 1467,
  "منتظر</w>": 1468,
  "بستی</w>": 1469,
  "آئیے</w>": 1470,
  "ویرانہ</w>": 1471,
  "لغزش</w>": 1472,
  "مستانہ</w>": 1473,
  "خانہ</w>": 1474,
  "وادی</w>": 1475,
  "مہی": 1476,
  "بیم</w>": 1477,
  "امید</w>": 1478,
  "دیکھیں</w>": 1479,
  "شیر</w>": 1480,
  "راح": 1481,
  "وداع</w>": 1482,
  "توبہ</w>": 1483,
  "جیو</w>": 1484,
  "مشرب</w>": 1485,
  "رندانہ</w>": 1486,
  "فگار</w>": 1487,
  "صبر</w>": 1488,
  "باقی</w>": 1489,
  "تار</w>": 1490,
  "آمد</w>": 1491,
  "خزاں</w>": 1492,
  "بت</w>": 1493,
  "فردا</w>": 1494,
  "انتظار</w>": 1495,
  "آئنہ</w>": 1496,
  "حیراں</w>": 1497,
  "غضب</w>": 1498,
  "سنگ": 1499,
  "ھ": 1500,
  "تہی</w>": 1501,
  "نثار</w>": 1502,
  "اچھی</w>": 1503,
  "ادھر</w>": 1504,
  "عید</w>": 1505,
  "انگلیاں</w>": 1506,
  "مسافر</w>": 1507,
  "صاف</w>": 1508,
  "موسی</w>": 1509,
  "لا</w>": 1510,
  "جلوہ</w>": 1511,
  "تاب</w>": 1512,
  "بارہا</w>": 1513,
  "عرش</w>": 1514,
  "زنجیر</w>": 1515,
  "بڑھتا</w>": 1516,
  "سیرت</w>": 1517,
  "غرض</w>": 1518,
  "چاہئے</w>": 1519,
  "شاہ": 1520,
  "دان</w>": 1521,
  "لائی</w>": 1522,
  "لینا</w>": 1523,
  "آنے</w>": 1524,
  "دوتا</w>": 1525,
  "سبو</w>": 1526,
  "مئے</w>": 1527,
  "تصور</w>": 1528,
  "پری": 1529,
  "خاموشی</w>": 1530,
  "صدائے</w>": 1531,
  "دور": 1532,
  "باش</w>": 1533,
  "کہتا</w>": 1534,
  "مبتلا</w>": 1535,
  "آہ</w>": 1536,
  "اثر</w>": 1537,
  "نخل</w>": 1538,
  "ثمر</w>": 1539,
  "رب</w>": 1540,
  "جگر</w>": 1541,
  "بغل</w>": 1542,
  "گیر</w>": 1543,
  "آرزو</w>": 1544,
  "مرا": 1545,
  "یہاں</w>": 1546,
  "گر</w>": 1547,
  "لکھا</w>": 1548,
  "دیکھیے</w>": 1549,
  "نازنیں</w>": 1550,
  "ٹان": 1551,
  "قضا</w>": 1552,
  "سفاک</w>": 1553,
  "بتا</w>": 1554,
  "کھی": 1555,
  "پڑ</w>": 1556,
  "جانا</w>": 1557,
  "مرتا</w>": 1558,
  "ضرر</w>": 1559,
  "سمجھو</w>": 1560,
  "یادگار</w>": 1561,
  "رفت": 1562,
  "گان</w>": 1563,
  "قد</w>": 1564,
  "آدم</w>": 1565,
  "کارو": 1566,
  "داستان</w>": 1567,
  "رنگیں</w>": 1568,
  "بیان</w>": 1569,
  "گوش</w>": 1570,
  "عبرت</w>": 1571,
  "فریاد</w>": 1572,
  "بلبل</w>": 1573,
  "خونیں</w>": 1574,
  "نوائے</w>": 1575,
  "ستان</w>": 1576,
  "آئینۂ</w>": 1577,
  "تصویر</w>": 1578,
  "نالہ</w>": 1579,
  "ڈھونڈھتا</w>": 1580,
  "مٹایا</w>": 1581,
  "نشان</w>": 1582,
  "عبارت</w>": 1583,
  "دید</w>": 1584,
  "شان</w>": 1585,
  "مجمع</w>": 1586,
  "زمین</w>": 1587,
  "آسمان</w>": 1588,
  "زباں</w>": 1589,
  "گردش</w>": 1590,
  "تیغ</w>": 1591,
  "اردو</w>": 1592,
  "فس": 1593,
  "مرث": 1594,
  "یکتا": 1595,
  "ہوتا</w>": 1596,
  "نوحہ</w>": 1597,
  "ناتواں</w>": 1598,
  "خاک": 1599,
  "خان": 1600,
  "مان</w>": 1601,
  "چلتا</w>": 1602,
  "گھٹ": 1603,
  "طفل</w>": 1604,
  "رض": 1605,
  "سجدہ</w>": 1606,
  "گردن</w>": 1607,
  "کش": 1608,
  "رانہ</w>": 1609,
  "سخن</w>": 1610,
  "بچ": 1611,
  "پنے</w>": 1612,
  "گلشن</w>": 1613,
  "فردوس</w>": 1614,
  "رضواں</w>": 1615,
  "رتبہ</w>": 1616,
  "ان": 1617,
  "س</w>": 1618,
  "مٹ": 1619,
  "ج</w>": 1620,
  "جمع</w>": 1621,
  "وطن</w>": 1622,
  "آوا": 1623,
  "رگ": 1624,
  "ہرز": 1625,
  "گرد</w>": 1626,
  "پری</w>": 1627,
  "ہنگامہ</w>": 1628,
  "سواری</w>": 1629,
  "دھوم</w>": 1630,
  "حی": 1631,
  "بھرے</w>": 1632,
  "مشو": 1633,
  "سیہ</w>": 1634,
  "جانیے</w>": 1635,
  "فروغ</w>": 1636,
  "سیکھا</w>": 1637,
  "طریق</w>": 1638,
  "فرو": 1639,
  "نی</w>": 1640,
  "صر</w>": 1641,
  "ڈھونڈتے</w>": 1642,
  "جانانہ</w>": 1643,
  "زن</w>": 1644,
  "مکر</w>": 1645,
  "مدد</w>": 1646,
  "کتاب</w>": 1647,
  "پارہ</w>": 1648,
  "مانند</w>": 1649,
  "باد</w>": 1650,
  "دوش</w>": 1651,
  "صحرا</w>": 1652,
  "زینہار</w>": 1653,
  "کریم</w>": 1654,
  "ہزار</w>": 1655,
  "انگڑ": 1656,
  "ائیوں</w>": 1657,
  "اختیار</w>": 1658,
  "ڈوبے</w>": 1659,
  "سعی</w>": 1660,
  "افسوس</w>": 1661,
  "ساحل</w>": 1662,
  "چار</w>": 1663,
  "کہتی</w>": 1664,
  "بحر</w>": 1665,
  "آبرو</w>": 1666,
  "در": 1667,
  "پئے</w>": 1668,
  "احباب</w>": 1669,
  "رنگ": 1670,
  "کھنچ": 1671,
  "مٹتا</w>": 1672,
  "نو": 1673,
  "شتہ</w>": 1674,
  "قسمت</w>": 1675,
  "زانو</w>": 1676,
  "مار</w>": 1677,
  "سنبھال": 1678,
  "رع": 1679,
  "شہ</w>": 1680,
  "مسئلہ</w>": 1681,
  "جبر</w>": 1682,
  "سم</w>": 1683,
  "علا": 1684,
  "دام</w>": 1685,
  "وصل</w>": 1686,
  "چین</w>": 1687,
  "قرار</w>": 1688,
  "ولولے</w>": 1689,
  "گھٹ</w>": 1690,
  "نہاں</w>": 1691,
  "اٹھے</w>": 1692,
  "دھواں</w>": 1693,
  "گرے</w>": 1694,
  "بجلیاں</w>": 1695,
  "بڑھ</w>": 1696,
  "سامان</w>": 1697,
  "راحت</w>": 1698,
  "مکاں</w>": 1699,
  "آسماں</w>": 1700,
  "مراد</w>": 1701,
  "ریں</w>": 1702,
  "کشت": 1703,
  "ئ</w>": 1704,
  "گھٹائیں</w>": 1705,
  "باد": 1706,
  "باں</w>": 1707,
  "مٹی</w>": 1708,
  "پائی</w>": 1709,
  "بگو": 1710,
  "وف": 1711,
  "ور</w>": 1712,
  "ضبط</w>": 1713,
  "بیتابی</w>": 1714,
  "سکتی</w>": 1715,
  "گلے</w>": 1716,
  "نالے</w>": 1717,
  "کیاں</w>": 1718,
  "انقلاب</w>": 1719,
  "عالم</w>": 1720,
  "نغمے</w>": 1721,
  "من": 1722,
  "عنا": 1723,
  "فغاں</w>": 1724,
  "ابر</w>": 1725,
  "سی": 1726,
  "نچ": 1727,
  "ے</w>": 1728,
  "دہقاں</w>": 1729,
  "جلا</w>": 1730,
  "کھیت</w>": 1731,
  "پانی</w>": 1732,
  "وا": 1733,
  "شد</w>": 1734,
  "ساماں</w>": 1735,
  "شے</w>": 1736,
  "ہن": 1737,
  "بجلی</w>": 1738,
  "ماتم</w>": 1739,
  "سارا</w>": 1740,
  "کشت</w>": 1741,
  "آشیاں</w>": 1742,
  "تن": 1743,
  "باعث</w>": 1744,
  "تسکیں</w>": 1745,
  "ہوے</w>": 1746,
  "فرہاد</w>": 1747,
  "روئیں</w>": 1748,
  "نہ": 1749,
  "پہاڑوں</w>": 1750,
  "رواں</w>": 1751,
  "شیدا</w>": 1752,
  "راج</w>": 1753,
  "بتوں</w>": 1754,
  "ظلم</w>": 1755,
  "ٹوٹے</w>": 1756,
  "ڈرتے</w>": 1757,
  "حرف</w>": 1758,
  "شوق</w>": 1759,
  "پہلو</w>": 1760,
  "نزاکت</w>": 1761,
  "تو": 1762,
  "توڑا</w>": 1763,
  "پہ": 1764,
  "کبک</w>": 1765,
  "لڑ": 1766,
  "کھڑ": 1767,
  "سبک</w>": 1768,
  "پائ": 1769,
  "گراں</w>": 1770,
  "گلا</w>": 1771,
  "منہ</w>": 1772,
  "اندیشہ</w>": 1773,
  "الک</w>": 1774,
  "پل": 1775,
  "بست": 1776,
  "پیدا</w>": 1777,
  "اماں</w>": 1778,
  "نکلی</w>": 1779,
  "تمہارا</w>": 1780,
  "تیر</w>": 1781,
  "کو": 1782,
  "ٹھے</w>": 1783,
  "سایۂ</w>": 1784,
  "پرسش</w>": 1785,
  "جلاد</w>": 1786,
  "بخشا</w>": 1787,
  "افشاں</w>": 1788,
  "سادگی</w>": 1789,
  "ریاں</w>": 1790,
  "صیاد</w>": 1791,
  "ظالم</w>": 1792,
  "سوچ</w>": 1793,
  "بوسۂ</w>": 1794,
  "ہونٹ</w>": 1795,
  "دیئے</w>": 1796,
  "طوق</w>": 1797,
  "داد</w>": 1798,
  "برباد</w>": 1799,
  "یعقوب</w>": 1800,
  "قطع</w>": 1801,
  "یوسف</w>": 1802,
  "پوچھتا</w>": 1803,
  "شیفتہ</w>": 1804,
  "بھولا</w>": 1805,
  "بیا": 1806,
  "ض</w>": 1807,
  "درکار</w>": 1808,
  "تحریر</w>": 1809,
  "روداد</w>": 1810,
  "کنج</w>": 1811,
  "قفس</w>": 1812,
  "رہائی</w>": 1813,
  "مثل</w>": 1814,
  "سپند</w>": 1815,
  "بیتاب</w>": 1816,
  "سوز</w>": 1817,
  "تڑپ</w>": 1818,
  "شیخ</w>": 1819,
  "ظ</w>": 1820,
  "ستم</w>": 1821,
  "ایجاد</w>": 1822,
  "بسکہ</w>": 1823,
  "ننگ</w>": 1824,
  "معت": 1825,
  "مضموں</w>": 1826,
  "ای": 1827,
  "بہشت</w>": 1828,
  "دوزخ</w>": 1829,
  "نمرود</w>": 1830,
  "ہستی</w>": 1831,
  "گزرا</w>": 1832,
  "روا</w>": 1833,
  "روی</w>": 1834,
  "محو</w>": 1835,
  "خودی</w>": 1836,
  "یاران</w>": 1837,
  "عشرت</w>": 1838,
  "چھاوں</w>": 1839,
  "پچھلے</w>": 1840,
  "عقدہ</w>": 1841,
  "پو": 1842,
  "شیدہ</w>": 1843,
  "کشاکش</w>": 1844,
  "خندۂ</w>": 1845,
  "پنہاں</w>": 1846,
  "چمک</w>": 1847,
  "شمار</w>": 1848,
  "امتیاز</w>": 1849,
  "آگہی</w>": 1850,
  "حکم</w>": 1851,
  "جیسا</w>": 1852,
  "سر": 1853,
  "زد</w>": 1854,
  "عل</w>": 1855,
  "ویسا</w>": 1856,
  "دخل</w>": 1857,
  "بدی</w>": 1858,
  "ست</w>": 1859,
  "بلند</w>": 1860,
  "یک": 1861,
  "ساں</w>": 1862,
  "ٹھوکر</w>": 1863,
  "وجد</w>": 1864,
  "غش</w>": 1865,
  "صو": 1866,
  "تعبیر</w>": 1867,
  "واپ": 1868,
  "سیں</w>": 1869,
  "نفس</w>": 1870,
  "دیکھتے</w>": 1871,
  "حباب</w>": 1872,
  "سیل</w>": 1873,
  "بہا</w>": 1874,
  "کھینچ": 1875,
  "دم</w>": 1876,
  "محشر</w>": 1877,
  "آفت": 1878,
  "دیکھے</w>": 1879,
  "حسرتیں</w>": 1880,
  "سلا": 1881,
  "متی</w>": 1882,
  "پرس": 1883,
  "ظ": 1884,
  "پرستی</w>": 1885,
  "رش</w>": 1886,
  "دامان</w>": 1887,
  "حائل</w>": 1888,
  "پردہ</w>": 1889,
  "آثار</w>": 1890,
  "پرچھ": 1891,
  "ائیں</w>": 1892,
  "لکھ</w>": 1893,
  "چکا</w>": 1894,
  "بندگی</w>": 1895,
  "پشیماں</w>": 1896,
  "جانتے</w>": 1897,
  "لگی</w>": 1898,
  "جواب</w>": 1899,
  "نامہ</w>": 1900,
  "قاصد</w>": 1901,
  "مزار</w>": 1902,
  "جانتا</w>": 1903,
  "حور</w>": 1904,
  "قصور</w>": 1905,
  "بلکہ</w>": 1906,
  "موتی</w>": 1907,
  "ہو": 1908,
  "اڑا</w>": 1909,
  "لگوں</w>": 1910,
  "نکلتی</w>": 1911,
  "شرابی</w>": 1912,
  "ٹو": 1913,
  "اچھ": 1914,
  "لتی</w>": 1915,
  "بدلتی</w>": 1916,
  "چلتی</w>": 1917,
  "زخود</w>": 1918,
  "رفتہ</w>": 1919,
  "طبیعت</w>": 1920,
  "سنبھالے</w>": 1921,
  "ناصح</w>": 1922,
  "جہ</w>": 1923,
  "مس": 1924,
  "فص": 1925,
  "کھلو": 1926,
  "ائے</w>": 1927,
  "رگ</w>": 1928,
  "ابل": 1929,
  "ہوتے</w>": 1930,
  "پن": 1931,
  "تم": 1932,
  "نقصاں</w>": 1933,
  "رکھی</w>": 1934,
  "زیست</w>": 1935,
  "ثابت</w>": 1936,
  "تلوار</w>": 1937,
  "اگل": 1938,
  "جہنم</w>": 1939,
  "آنچ</w>": 1940,
  "خواروں</w>": 1941,
  "شراب</w>": 1942,
  "آلودہ</w>": 1943,
  "آتش</w>": 1944,
  "جلتی</w>": 1945,
  "دکھ": 1946,
  "الہی</w>": 1947,
  "آفت</w>": 1948,
  "فرقت</w>": 1949,
  "کاٹے</w>": 1950,
  "کٹتی</w>": 1951,
  "شغل</w>": 1952,
  "الجھ": 1953,
  "بہ": 1954,
  "شمس</w>": 1955,
  "قمر</w>": 1956,
  "دونوں</w>": 1957,
  "برہنہ</w>": 1958,
  "یارب</w>": 1959,
  "بجھ</w>": 1960,
  "نشاں</w>": 1961,
  "راہ": 1962,
  "دشت</w>": 1963,
  "کوتاہی</w>": 1964,
  "شام</w>": 1965,
  "نگہ</w>": 1966,
  "کھنچ</w>": 1967,
  "گوشے</w>": 1968,
  "تڑ": 1969,
  "گیسو</w>": 1970,
  "عقبی</w>": 1971,
  "کان</w>": 1972,
  "پھونک</w>": 1973,
  "گہر</w>": 1974,
  "آندھ": 1975,
  "اشک</w>": 1976,
  "سیلاب</w>": 1977,
  "خرابی</w>": 1978,
  "زہرہ</w>": 1979,
  "خورشید</w>": 1980,
  "رند</w>": 1981,
  "پروا</w>": 1982,
  "شیشۂ</w>": 1983,
  "صہبا</w>": 1984,
  "غافل</w>": 1985,
  "ہشیار</w>": 1986,
  "تمثال</w>": 1987,
  "یک</w>": 1988,
  "ور": 1989,
  "طہ</w>": 1990,
  "ناداں</w>": 1991,
  "دانا</w>": 1992,
  "منت</w>": 1993,
  "کش</w>": 1994,
  "بال</w>": 1995,
  "ملک</w>": 1996,
  "نالۂ</w>": 1997,
  "ما</w>": 1998,
  "تعجب</w>": 1999,
  "حیواں</w>": 2000,
  "طلب</w>": 2001,
  "زل": 2002,
  "گز": 2003,
  "ین</w>": 2004,
  "درپیش</w>": 2005,
  "مہلت</w>": 2006,
  "پوچھئے</w>": 2007,
  "نقش</w>": 2008,
  "حق</w>": 2009,
  "صیر</w>": 2010,
  "تہ</w>": 2011,
  "سمجھیں</w>": 2012,
  "بینا</w>": 2013,
  "ہمہ</w>": 2014,
  "تن</w>": 2015,
  "حرص</w>": 2016,
  "شکوہ</w>": 2017,
  "لانے</w>": 2018,
  "خلق</w>": 2019,
  "عم</w>": 2020,
  "چھپانا</w>": 2021,
  "نگ</w>": 2022,
  "ہمیشہ</w>": 2023,
  "کوچ</w>": 2024,
  "مقام</w>": 2025,
  "قت</w>": 2026,
  "میل</w>": 2027,
  "چنگ</w>": 2028,
  "ڑتے</w>": 2029,
  "آرسی</w>": 2030,
  "قافلہ</w>": 2031,
  "کھینچ</w>": 2032,
  "شباب</w>": 2033,
  "پیری</w>": 2034,
  "فسانہ</w>": 2035,
  "اڑ</w>": 2036,
  "رخ</w>": 2037,
  "قابو</w>": 2038,
  "کلام</w>": 2039,
  "کماں</w>": 2040,
  "چھوٹا</w>": 2041,
  "خد": 2042,
  "دھارا</w>": 2043,
  "الجھا</w>": 2044,
  "مارا</w>": 2045,
  "مو": 2046,
  "جال</w>": 2047,
  "لحد</w>": 2048,
  "فاظ</w>": 2049,
  "لحاظ</w>": 2050,
  "ڈالیں</w>": 2051,
  "جناب</w>": 2052,
  "مینائے</w>": 2053,
  "محتسب</w>": 2054,
  "رند": 2055,
  "دہن</w>": 2056,
  "قف": 2057,
  "رایا</w>": 2058,
  "چھاتی</w>": 2059,
  "صوفی</w>": 2060,
  "نکتہ</w>": 2061,
  "سما": 2062,
  "پیالے</w>": 2063,
  "بج": 2064,
  "افسردہ</w>": 2065,
  "حسرتوں</w>": 2066,
  "رکھا</w>": 2067,
  "بچا</w>": 2068,
  "ناموس</w>": 2069,
  "فرصت</w>": 2070,
  "وی</w>": 2071,
  "خ": 2072,
  "ڈالا</w>": 2073,
  "بھیس</w>": 2074,
  "صد": 2075,
  "ہا</w>": 2076,
  "لبھ": 2077,
  "ایا</w>": 2078,
  "شوخ</w>": 2079,
  "تامل</w>": 2080,
  "شہید</w>": 2081,
  "دب</w>": 2082,
  "لی": 2083,
  "لعل</w>": 2084,
  "دریغ</w>": 2085,
  "پھری</w>": 2086,
  "بسمل</w>": 2087,
  "ہرن</w>": 2088,
  "بنایا</w>": 2089,
  "چھوڑا</w>": 2090,
  "عندلیب</w>": 2091,
  "چھٹا</w>": 2092,
  "پرواز</w>": 2093,
  "گریز</w>": 2094,
  "سنا</w>": 2095,
  "سرائے</w>": 2096,
  "غاف": 2097,
  "ظاہر</w>": 2098,
  "برہمن</w>": 2099,
  "حادثہ</w>": 2100,
  "آگ": 2101,
  "بشر</w>": 2102,
  "رود</w>": 2103,
  "دریائے</w>": 2104,
  "موجزن</w>": 2105,
  "ٹتے</w>": 2106,
  "بچھڑ</w>": 2107,
  "گواہ</w>": 2108,
  "حت</w>": 2109,
  "نرگس</w>": 2110,
  "یا": 2111,
  "اسیر</w>": 2112,
  "گیسووں</w>": 2113,
  "خوب</w>": 2114,
  "چہ</w>": 2115,
  "ذ": 2116,
  "کشوں</w>": 2117,
  "کنار</w>": 2118,
  "زہے</w>": 2119,
  "کربلا</w>": 2120,
  "موت</w>": 2121,
  "شفا</w>": 2122,
  "کفن</w>": 2123,
  "مآل</w>": 2124,
  "ابھر</w>": 2125,
  "لط": 2126,
  "غرور</w>": 2127,
  "جذب</w>": 2128,
  "جز</w>": 2129,
  "بہک</w>": 2130,
  "لگائے</w>": 2131,
  "ٹھہر</w>": 2132,
  "بیاں</w>": 2133,
  "وہم</w>": 2134,
  "خط": 2135,
  "بۂ</w>": 2136,
  "نشیں</w>": 2137,
  "کہنے</w>": 2138,
  "رانے</w>": 2139,
  "ذکر</w>": 2140,
  "قصہ</w>": 2141,
  "نشہ</w>": 2142,
  "تک": 2143,
  "بچ</w>": 2144,
  "نوید</w>": 2145,
  "برق</w>": 2146,
  "گر": 2147,
  "عب": 2148,
  "فکر</w>": 2149,
  "مزہ</w>": 2150,
  "پوچھ": 2151,
  "یے</w>": 2152,
  "انگ": 2153,
  "بیں</w>": 2154,
  "حسد</w>": 2155,
  "جوش</w>": 2156,
  "چڑھ</w>": 2157,
  "واد": 2158,
  "عبث</w>": 2159,
  "احتیاط</w>": 2160,
  "گرتے</w>": 2161,
  "سنبھل</w>": 2162,
  "کشتی</w>": 2163,
  "الٹی</w>": 2164,
  "نارسا</w>": 2165,
  "مڑ</w>": 2166,
  "اب": 2167,
  "رووں</w>": 2168,
  "چھری</w>": 2169,
  "سیدھی</w>": 2170,
  "نظارہ</w>": 2171,
  "رخسار</w>": 2172,
  "ض": 2173,
  "آس": 2174,
  "بول</w>": 2175,
  "بولے</w>": 2176,
  "پیش</w>": 2177,
  "گنبد</w>": 2178,
  "زنبور</w>": 2179,
  "لق</w>": 2180,
  "ذا</w>": 2181,
  "ستائش</w>": 2182,
  "مدح</w>": 2183,
  "خواں</w>": 2184,
  "مش": 2185,
  "فق</w>": 2186,
  "ضمیر</w>": 2187,
  "مرحبا</w>": 2188,
  "جنس</w>": 2189,
  "ڈوب": 2190,
  "ناکامی</w>": 2191,
  "شہ": 2192,
  "رسا</w>": 2193,
  "عیسی</w>": 2194,
  "کوچۂ</w>": 2195,
  "بتلا</w>": 2196,
  "ہجر</w>": 2197,
  "وہاں</w>": 2198,
  "ناک</w>": 2199,
  "بوریا</w>": 2200,
  "سبحہ</w>": 2201,
  "عیار</w>": 2202,
  "اغیار</w>": 2203,
  "چھا</w>": 2204,
  "جھوٹے</w>": 2205,
  "کیجئے</w>": 2206,
  "روٹھ": 2207,
  "جھوٹ</w>": 2208,
  "بیدار</w>": 2209,
  "تیاں</w>": 2210,
  "اصرار</w>": 2211,
  "ناصح": 2212,
  "بحث</w>": 2213,
  "عت</w>": 2214,
  "واع": 2215,
  "سرمہ</w>": 2216,
  "قصد</w>": 2217,
  "بگڑے</w>": 2218,
  "پتے</w>": 2219,
  "بیزار</w>": 2220,
  "مانتا</w>": 2221,
  "عدم</w>": 2222,
  "دوستوں</w>": 2223,
  "نگاہ</w>": 2224,
  "کرم</w>": 2225,
  "شاہد</w>": 2226,
  "شاخیں</w>": 2227,
  "سائل</w>": 2228,
  "قیس</w>": 2229,
  "طرفہ</w>": 2230,
  "محمل</w>": 2231,
  "طے</w>": 2232,
  "پہنچ</w>": 2233,
  "ایام</w>": 2234,
  "شی": 2235,
  "م</w>": 2236,
  "ہوس</w>": 2237,
  "زا": 2238,
  "ئل</w>": 2239,
  "رشک</w>": 2240,
  "بام</w>": 2241,
  "رحم</w>": 2242,
  "چال</w>": 2243,
  "آساں</w>": 2244,
  "جستہ</w>": 2245,
  "بہر</w>": 2246,
  "ٹکے</w>": 2247,
  "خواہ</w>": 2248,
  "اشارے</w>": 2249,
  "بتائیں</w>": 2250,
  "طواف</w>": 2251,
  "کعبے</w>": 2252,
  "مض": 2253,
  "مغاں</w>": 2254,
  "باغ</w>": 2255,
  "جنت</w>": 2256,
  "نالوں</w>": 2257,
  "جلے</w>": 2258,
  "نگراں</w>": 2259,
  "ملنا</w>": 2260,
  "ٹھہرا</w>": 2261,
  "تربت</w>": 2262,
  "ٹکڑے</w>": 2263,
  "از</w>": 2264,
  "کت": 2265,
  "باز</w>": 2266,
  "ہونے</w>": 2267,
  "عیاں</w>": 2268,
  "جفا</w>": 2269,
  "بر</w>": 2270,
  "فر</w>": 2271,
  "نکلیں</w>": 2272,
  "گیں</w>": 2273,
  "ازل</w>": 2274,
  "ابد</w>": 2275,
  "جور</w>": 2276,
  "برگ</w>": 2277,
  "شکوۂ</w>": 2278,
  "خندہ</w>": 2279,
  "سبب</w>": 2280,
  "گریہ</w>": 2281,
  "فقیر</w>": 2282,
  "تا": 2283,
  "لہ</w>": 2284,
  "شک</w>": 2285,
  "قصر</w>": 2286,
  "حیف</w>": 2287,
  "خانماں</w>": 2288,
  "خراب</w>": 2289,
  "یر</w>": 2290,
  "طر</w>": 2291,
  "واہ</w>": 2292,
  "برد</w>": 2293,
  "خسرو</w>": 2294,
  "کی": 2295,
  "پیشتر</w>": 2296,
  "عطا</w>": 2297,
  "لطف</w>": 2298,
  "رخی</w>": 2299,
  "کج</w>": 2300,
  "ملال</w>": 2301,
  "مان": 2302,
  "جانئے</w>": 2303,
  "گلہ</w>": 2304,
  "نیشتر</w>": 2305,
  "استغنا</w>": 2306,
  "انسان</w>": 2307,
  "رسائی</w>": 2308,
  "پوچھوں</w>": 2309,
  "ام": 2310,
  "مٹھی</w>": 2311,
  "زر</w>": 2312,
  "راتے</w>": 2313,
  "کوتا": 2314,
  "زہد</w>": 2315,
  "یائی</w>": 2316,
  "ڈرتا</w>": 2317,
  "اف</w>": 2318,
  "اجازت</w>": 2319,
  "بھڑ": 2320,
  "ک</w>": 2321,
  "تھ": 2322,
  "تلو": 2323,
  "ڈالے</w>": 2324,
  "پھیر</w>": 2325,
  "مطلق</w>": 2326,
  "عاقبت</w>": 2327,
  "اندیش</w>": 2328,
  "چپکے</w>": 2329,
  "ندامت</w>": 2330,
  "ہمدم</w>": 2331,
  "دکھائے</w>": 2332,
  "روانی</w>": 2333,
  "توسن</w>": 2334,
  "ہلال</w>": 2335,
  "رک": 2336,
  "عناں</w>": 2337,
  "ناتوانی</w>": 2338,
  "سلی": 2339,
  "زماں</w>": 2340,
  "ستاں</w>": 2341,
  "نوا</w>": 2342,
  "بتایا</w>": 2343,
  "سوئے</w>": 2344,
  "جاگے</w>": 2345,
  "کہ": 2346,
  "پڑی</w>": 2347,
  "زار</w>": 2348,
  "پھینکا</w>": 2349,
  "قراری</w>": 2350,
  "اڑائی</w>": 2351,
  "ماندہ</w>": 2352,
  "منزلوں</w>": 2353,
  "لگ</w>": 2354,
  "اٹھی</w>": 2355,
  "پہنچا</w>": 2356,
  "ڑ": 2357,
  "بستیاں</w>": 2358,
  "تھیں</w>": 2359,
  "ویر": 2360,
  "انیاں</w>": 2361,
  "ٹنے</w>": 2362,
  "صدیاں</w>": 2363,
  "نمی</w>": 2364,
  "لبوں</w>": 2365,
  "پیتے</w>": 2366,
  "چھی": 2367,
  "مات</w>": 2368,
  "افسانے</w>": 2369,
  "پہچانے</w>": 2370,
  "جلد</w>": 2371,
  "قافلے</w>": 2372,
  "والو</w>": 2373,
  "نکے</w>": 2374,
  "ویرانے</w>": 2375,
  "کیے</w>": 2376,
  "خانے</w>": 2377,
  "پہر</w>": 2378,
  "تشنہ</w>": 2379,
  "یاروں</w>": 2380,
  "پیمانے</w>": 2381,
  "سلام</w>": 2382,
  "کیفی": 2383,
  "ؔ</w>": 2384,
  "سار</w>": 2385,
  "مسی": 2386,
  "ح</w>": 2387,
  "چھپ</w>": 2388,
  "ڈھونڈتا</w>": 2389,
  "ملتا</w>": 2390,
  "نئے</w>": 2391,
  "شعلے</w>": 2392,
  "چہروں</w>": 2393,
  "جنگل</w>": 2394,
  "سرا": 2395,
  "ملی</w>": 2396,
  "پچھتا": 2397,
  "ہنگا": 2398,
  "جاگ</w>": 2399,
  "غربت</w>": 2400,
  "ٹھنڈی</w>": 2401,
  "اعلان</w>": 2402,
  "طرۂ</w>": 2403,
  "رسن</w>": 2404,
  "سوال</w>": 2405,
  "خواہشوں</w>": 2406,
  "گز</w>": 2407,
  "مشی": 2408,
  "ٹھ</w>": 2409,
  "اش": 2410,
  "ستی</w>": 2411,
  "بیچ</w>": 2412,
  "ارمان</w>": 2413,
  "سپنے</w>": 2414,
  "بچپن</w>": 2415,
  "دیواریں</w>": 2416,
  "کھڑی</w>": 2417,
  "مہربان</w>": 2418,
  "ہوائیں</w>": 2419,
  "لیلی</w>": 2420,
  "جنم</w>": 2421,
  "صحت</w>": 2422,
  "جتنا</w>": 2423,
  "خیمے</w>": 2424,
  "پیاسے</w>": 2425,
  "بنیں</w>": 2426,
  "مسج": 2427,
  "ٹیں</w>": 2428,
  "نازک</w>": 2429,
  "ٹنا</w>": 2430,
  "پتھ": 2431,
  "راو</w>": 2432,
  "انا</w>": 2433,
  "شاہ</w>": 2434,
  "نامے</w>": 2435,
  "کھنڈ": 2436,
  "نٹ</w>": 2437,
  "دفن</w>": 2438,
  "نی": 2439,
  "زیں</w>": 2440,
  "حریم</w>": 2441,
  "مانگ": 2442,
  "نگی</w>": 2443,
  "بھٹک</w>": 2444,
  "نگ": 2445,
  "شور</w>": 2446,
  "پرند": 2447,
  "چا": 2448,
  "پیڑ</w>": 2449,
  "بانی</w>": 2450,
  "بہاراں</w>": 2451,
  "ستا</w>": 2452,
  "چھی</w>": 2453,
  "گھبرا</w>": 2454,
  "اڑے</w>": 2455,
  "سراب</w>": 2456,
  "سمندر</w>": 2457,
  "جھکی</w>": 2458,
  "جواں</w>": 2459,
  "گن</w>": 2460,
  "ٹھک": 2461,
  "خلل</w>": 2462,
  "ہنسنے</w>": 2463,
  "سکون</w>": 2464,
  "رونے</w>": 2465,
  "دوسرا</w>": 2466,
  "نشیب</w>": 2467,
  "فراز</w>": 2468,
  "لبی</w>": 2469,
  "ابل</w>": 2470,
  "خار</w>": 2471,
  "خس</w>": 2472,
  "اٹھیں</w>": 2473,
  "راستہ</w>": 2474,
  "بز": 2475,
  "رگوں</w>": 2476,
  "بجھنے</w>": 2477,
  "حاکم</w>": 2478,
  "مذہب</w>": 2479,
  "خودکشی</w>": 2480,
  "سکھا</w>": 2481,
  "حر": 2482,
  "چے</w>": 2483,
  "لاو</w>": 2484,
  "حسین</w>": 2485,
  "خطا</w>": 2486,
  "ڈو": 2487,
  "ضرور</w>": 2488,
  "ناخدا</w>": 2489,
  "دھول</w>": 2490,
  "نما</w>": 2491,
  "ناچ": 2492,
  "کاش</w>": 2493,
  "اکی": 2494,
  "فتنے</w>": 2495,
  "غری": 2496,
  "بی</w>": 2497,
  "پوچھا</w>": 2498,
  "سلیقہ</w>": 2499,
  "جگنو</w>": 2500,
  "سہارا</w>": 2501,
  "گزرے</w>": 2502,
  "ستارے</w>": 2503,
  "زیر</w>": 2504,
  "پیغام</w>": 2505,
  "خنجر</w>": 2506,
  "بادل</w>": 2507,
  "مانوس</w>": 2508,
  "ادب</w>": 2509,
  "بجھائے</w>": 2510,
  "مدتیں</w>": 2511,
  "چھپائے</w>": 2512,
  "گرمئ</w>": 2513,
  "دیکھو</w>": 2514,
  "پند</w>": 2515,
  "الفت</w>": 2516,
  "دیکھنے</w>": 2517,
  "گلزار</w>": 2518,
  "مک": 2519,
  "فیضؔ</w>": 2520,
  "بند": 2521,
  "ہات</w>": 2522,
  "شکر</w>": 2523,
  "جاناں</w>": 2524,
  "مقتل</w>": 2525,
  "سلامت</w>": 2526,
  "جانی</w>": 2527,
  "میدان</w>": 2528,
  "دربار</w>": 2529,
  "بازی</w>": 2530,
  "کیسا</w>": 2531,
  "جیت</w>": 2532,
  "ہارے</w>": 2533,
  "فراق</w>": 2534,
  "ٹل</w>": 2535,
  "بہل</w>": 2536,
  "ڈھل</w>": 2537,
  "جگا</w>": 2538,
  "مچل</w>": 2539,
  "صاحب</w>": 2540,
  "سیر</w>": 2541,
  "چاہ</w>": 2542,
  "عجز</w>": 2543,
  "کافر</w>": 2544,
  "محت": 2545,
  "بادہ</w>": 2546,
  "عرض</w>": 2547,
  "رضا</w>": 2548,
  "خو</w>": 2549,
  "ڈالو</w>": 2550,
  "خوئے</w>": 2551,
  "بیداد</w>": 2552,
  "گروں</w>": 2553,
  "خی": 2554,
  "پھرتی</w>": 2555,
  "زیاں</w>": 2556,
  "تشویش</w>": 2557,
  "کیجے</w>": 2558,
  "دلبر</w>": 2559,
  "پہرے</w>": 2560,
  "عدو</w>": 2561,
  "سجا</w>": 2562,
  "جھل": 2563,
  "بدلا</w>": 2564,
  "سرخی</w>": 2565,
  "پیے</w>": 2566,
  "ڈھلے</w>": 2567,
  "آغاز</w>": 2568,
  "بدلی</w>": 2569,
  "مدھم</w>": 2570,
  "ساز</w>": 2571,
  "لم</w>": 2572,
  "سادہ</w>": 2573,
  "عنایت</w>": 2574,
  "اعجاز</w>": 2575,
  "بہم</w>": 2576,
  "ساغر</w>": 2577,
  "اداس</w>": 2578,
  "پھرا</w>": 2579,
  "راہی</w>": 2580,
  "ارادہ</w>": 2581,
  "فرق</w>": 2582,
  "رنجش</w>": 2583,
  "اندازۂ</w>": 2584,
  "تبسم</w>": 2585,
  "دوست</w>": 2586,
  "منت": 2587,
  "شر</w>": 2588,
  "جلوۂ</w>": 2589,
  "تکمیل</w>": 2590,
  "رۂ</w>": 2591,
  "نفرت</w>": 2592,
  "استوار</w>": 2593,
  "رہیں</w>": 2594,
  "شعار</w>": 2595,
  "آشیانہ</w>": 2596,
  "غا": 2597,
  "سلوک</w>": 2598,
  "عاشق": 2599,
  "قہر</w>": 2600,
  "خوشا</w>": 2601,
  "مدعی</w>": 2602,
  "دۂ</w>": 2603,
  "جفا": 2604,
  "تلاش</w>": 2605,
  "جتنی</w>": 2606,
  "حضرت</w>": 2607,
  "گفتگو</w>": 2608,
  "سارے</w>": 2609,
  "فسانے</w>": 2610,
  "گوار</w>": 2611,
  "غارت</w>": 2612,
  "گلچیں</w>": 2613,
  "بہانے</w>": 2614,
  "حدیث</w>": 2615,
  "عنواں</w>": 2616,
  "نکھ": 2617,
  "محرم</w>": 2618,
  "طق</w>": 2619,
  "بخیہ</w>": 2620,
  "گلوں</w>": 2621,
  "کاکل</w>": 2622,
  "مشک": 2623,
  "غریب</w>": 2624,
  "گسار</w>": 2625,
  "ہجراں</w>": 2626,
  "حضور</w>": 2627,
  "گرہ</w>": 2628,
  "ج": 2629,
  "چا</w>": 2630,
  "حریف</w>": 2631,
  "رائیگاں</w>": 2632,
  "ڈبو</w>": 2633,
  "ہونا</w>": 2634,
  "لکھتے</w>": 2635,
  "ٹھہری</w>": 2636,
  "اکرام</w>": 2637,
  "حرام</w>": 2638,
  "پھرتا</w>": 2639,
  "گریزاں</w>": 2640,
  "بتاں</w>": 2641,
  "گھڑی</w>": 2642,
  "درجہ</w>": 2643,
  "بکھری</w>": 2644,
  "عاجز</w>": 2645,
  "کف</w>": 2646,
  "مجاز</w>": 2647,
  "نماز</w>": 2648,
  "رہین</w>": 2649,
  "نیاز</w>": 2650,
  "بیکسی</w>": 2651,
  "کار": 2652,
  "نواز</w>": 2653,
  "سود</w>": 2654,
  "افشائے</w>": 2655,
  "گوں</w>": 2656,
  "قدرت</w>": 2657,
  "تلخی</w>": 2658,
  "لٹ</w>": 2659,
  "متاع</w>": 2660,
  "ریزہ</w>": 2661,
  "گنوا</w>": 2662,
  "بچے</w>": 2663,
  "لٹا</w>": 2664,
  "صف</w>": 2665,
  "دش": 2666,
  "قاتلوں</w>": 2667,
  "پس</w>": 2668,
  "عذر</w>": 2669,
  "گفت": 2670,
  "پڑھ</w>": 2671,
  "رکے</w>": 2672,
  "بھولے</w>": 2673,
  "بچھڑے</w>": 2674,
  "کعبہ</w>": 2675,
  "تارے</w>": 2676,
  "ران</w>": 2677,
  "اٹھانے</w>": 2678,
  "دماغ</w>": 2679,
  "مائل</w>": 2680,
  "رتے</w>": 2681,
  "ماضی</w>": 2682,
  "مٹے</w>": 2683,
  "آزمائش</w>": 2684,
  "قربتیں</w>": 2685,
  "فاصلے</w>": 2686,
  "لگاو</w>": 2687,
  "وصال</w>": 2688,
  "رفیق</w>": 2689,
  "میکدے</w>": 2690,
  "التجا</w>": 2691,
  "چھن</w>": 2692,
  "مشق</w>": 2693,
  "ختم</w>": 2694,
  "مزا</w>": 2695,
  "خوش": 2696,
  "دیدار</w>": 2697,
  "بدلنے</w>": 2698,
  "کھلتا</w>": 2699,
  "چھل": 2700,
  "عشاق</w>": 2701,
  "لگنے</w>": 2702,
  "جلنے</w>": 2703,
  "دعوت</w>": 2704,
  "ڈال</w>": 2705,
  "لاد</w>": 2706,
  "کان": 2707,
  "دھے</w>": 2708,
  "آس</w>": 2709,
  "مہرباں</w>": 2710,
  "گاروں</w>": 2711,
  "مصروف</w>": 2712,
  "بازار</w>": 2713,
  "الماس</w>": 2714,
  "نعمت</w>": 2715,
  "چکے</w>": 2716,
  "جدھر</w>": 2717,
  "شکایت</w>": 2718,
  "رقم</w>": 2719,
  "ناصبور</w>": 2720,
  "جاگنے</w>": 2721,
  "ارۂ</w>": 2722,
  "مقابل</w>": 2723,
  "سرخ</w>": 2724,
  "انجم</w>": 2725,
  "برس</w>": 2726,
  "دست": 2727,
  "باب</w>": 2728,
  "زاد</w>": 2729,
  "مقتول</w>": 2730,
  "صید</w>": 2731,
  "اجڑے</w>": 2732,
  "ٹے</w>": 2733,
  "رؔ</w>": 2734,
  "فرہ": 2735,
  "اد": 2736,
  "مرجھ": 2737,
  "رام</w>": 2738,
  "کم": 2739,
  "ناشاد</w>": 2740,
  "یوس": 2741,
  "یعق": 2742,
  "بؔ</w>": 2743,
  "کنعاں</w>": 2744,
  "مصر</w>": 2745,
  "آباد</w>": 2746,
  "زیبائی</w>": 2747,
  "ارزاں</w>": 2748,
  "شناسائی</w>": 2749,
  "بد": 2750,
  "ناں</w>": 2751,
  "تذکرہ</w>": 2752,
  "آرائی</w>": 2753,
  "صحن</w>": 2754,
  "شاد</w>": 2755,
  "داں</w>": 2756,
  "رعنائی</w>": 2757,
  "مسیح": 2758,
  "زدگاں</w>": 2759,
  "مسیحائی</w>": 2760,
  "رسوائی</w>": 2761,
  "ویراں</w>": 2762,
  "خم</w>": 2763,
  "روٹھ</w>": 2764,
  "گناہ</w>": 2765,
  "پرور": 2766,
  "گار</w>": 2767,
  "فریب</w>": 2768,
  "دیے</w>": 2769,
  "کردہ</w>": 2770,
  "دائی</w>": 2771,
  "حک": 2772,
  "ایتیں</w>": 2773,
  "لباس</w>": 2774,
  "سیاہی</w>": 2775,
  "لکھی</w>": 2776,
  "جنہیں</w>": 2777,
  "آزمانے</w>": 2778,
  "ٹپ": 2779,
  "کنے</w>": 2780,
  "نگاہوں</w>": 2781,
  "مستی</w>": 2782,
  "چر": 2783,
  "لگائیں</w>": 2784,
  "ٹھکانے</w>": 2785,
  "دشنام</w>": 2786,
  "طعن</w>": 2787,
  "فضول</w>": 2788,
  "ملامت</w>": 2789,
  "لمبی</w>": 2790,
  "ابتدا</w>": 2791,
  "ہنگام</w>": 2792,
  "نجات</w>": 2793,
  "روئے</w>": 2794,
  "مریم</w>": 2795,
  "دائے</w>": 2796,
  "گا": 2797,
  "قیامتیں</w>": 2798,
  "سنی</w>": 2799,
  "گوشۂ</w>": 2800,
  "نیام</w>": 2801,
  "اع": 2802,
  "جنگ</w>": 2803,
  "مسیحا</w>": 2804,
  "عام</w>": 2805,
  "عط": 2806,
  "رہ": 2807,
  "زنوں</w>": 2808,
  "میسر</w>": 2809,
  "فراہم</w>": 2810,
  "وضو</w>": 2811,
  "ہا": 2812,
  "روبرو</w>": 2813,
  "آشنا</w>": 2814,
  "آشنا": 2815,
  "ئیاں</w>": 2816,
  "ٹھہرے</w>": 2817,
  "ہوئیں</w>": 2818,
  "جگ</w>": 2819,
  "مندی</w>": 2820,
  "خدا": 2821,
  "رن": 2822,
  "جی": 2823,
  "سکھ": 2824,
  "ادا": 2825,
  "نظا": 2826,
  "پوچھیں</w>": 2827,
  "احوال</w>": 2828,
  "بھول</w>": 2829,
  "دوبا": 2830,
  "دیو": 2831,
  "منا": 2832,
  "ئیں</w>": 2833,
  "اڑتی</w>": 2834,
  "آزما</w>": 2835,
  "سطوت</w>": 2836,
  "شاہی</w>": 2837,
  "درباں</w>": 2838,
  "عص": 2839,
  "مص": 2840,
  "قلم</w>": 2841,
  "ندا</w>": 2842,
  "ید</w>": 2843,
  "مسرت</w>": 2844,
  "طفلاں</w>": 2845,
  "لشکر</w>": 2846,
  "نور</w>": 2847,
  "خشاں</w>": 2848,
  "جم</w>": 2849,
  "حلقہ</w>": 2850,
  "رہو</w>": 2851,
  "وفائے</w>": 2852,
  "دگر</w>": 2853,
  "امیدوار</w>": 2854,
  "حجاب</w>": 2855,
  "قلب</w>": 2856,
  "جزا</w>": 2857,
  "وق": 2858,
  "ثواب</w>": 2859,
  "صدق</w>": 2860,
  "صفا</w>": 2861,
  "رکھو</w>": 2862,
  "مضطرب</w>": 2863,
  "سکوں</w>": 2864,
  "امتحان</w>": 2865,
  "دسترس</w>": 2866,
  "ضرورت</w>": 2867,
  "رہبر</w>": 2868,
  "چاہیے</w>": 2869,
  "وند</w>": 2870,
  "تمنائے</w>": 2871,
  "خراج</w>": 2872,
  "گدا</w>": 2873,
  "عق": 2874,
  "گناہوں</w>": 2875,
  "سوں</w>": 2876,
  "کیجیے</w>": 2877,
  "دوستو</w>": 2878,
  "مہکے</w>": 2879,
  "شمعیں</w>": 2880,
  "دلبری</w>": 2881,
  "محبو": 2882,
  "دنوں</w>": 2883,
  "بدنام</w>": 2884,
  "اونچا</w>": 2885,
  "فیض</w>": 2886,
  "تقاضائے</w>": 2887,
  "پیارا</w>": 2888,
  "بیگانے</w>": 2889,
  "'": 2890,
  "بجھتی</w>": 2891,
  "بلا": 2892,
  "بہلتا</w>": 2893,
  "ستاتی</w>": 2894,
  "شرح</w>": 2895,
  "سنائیں</w>": 2896,
  "قدح</w>": 2897,
  "حری": 2898,
  "ویرانی</w>": 2899,
  "سنوارے</w>": 2900,
  "خوبی</w>": 2901,
  "استعا": 2902,
  "قول</w>": 2903,
  "سہارے</w>": 2904,
  "شت</w>": 2905,
  "جاوید</w>": 2906,
  "حالت</w>": 2907,
  "ناب</w>": 2908,
  "ستا": 2909,
  "عذاب</w>": 2910,
  "مینا</w>": 2911,
  "ماہتاب</w>": 2912,
  "اترے</w>": 2913,
  "نقاب</w>": 2914,
  "داری</w>": 2915,
  "خامشی</w>": 2916,
  "گون": 2917,
  "گویا</w>": 2918,
  "پہنچے</w>": 2919,
  "کامیاب</w>": 2920,
  "نوائی</w>": 2921,
  "قامت</w>": 2922,
  "معین</w>": 2923,
  "کل": 2924,
  "صح": 2925,
  "بتیں</w>": 2926,
  "عدا": 2927,
  "دکھائیں</w>": 2928,
  "جیے</w>": 2929,
  "گور</w>": 2930,
  "منظر</w>": 2931,
  "جانیں</w>": 2932,
  "وے</w>": 2933,
  "گرفتار</w>": 2934,
  "تسلیم</w>": 2935,
  "بکف</w>": 2936,
  "دیواروں</w>": 2937,
  "پھرنے</w>": 2938,
  "کبھو</w>": 2939,
  "کیفیت</w>": 2940,
  "آگاہ</w>": 2941,
  "دھر</w>": 2942,
  "خوار</w>": 2943,
  "زاں</w>": 2944,
  "جم": 2945,
  "عیب</w>": 2946,
  "زنہار</w>": 2947,
  "کہیو</w>": 2948,
  "میرؔ</w>": 2949,
  "حذر</w>": 2950,
  "ڈھا</w>": 2951,
  "لنا</w>": 2952,
  "خوا": 2953,
  "عہ</w>": 2954,
  "حجابی</w>": 2955,
  "فارغ</w>": 2956,
  "تابی</w>": 2957,
  "شعلہ</w>": 2958,
  "خانۂ</w>": 2959,
  "کھینچتا</w>": 2960,
  "دھ</w>": 2961,
  "شعلۂ</w>": 2962,
  "دود</w>": 2963,
  "بیٹھ": 2964,
  "آستاں</w>": 2965,
  "بھاری</w>": 2966,
  "پیشانی</w>": 2967,
  "قہ</w>": 2968,
  "نہایت</w>": 2969,
  "خ</w>": 2970,
  "آئ": 2971,
  "ندہ</w>": 2972,
  "ڑھا</w>": 2973,
  "نال": 2974,
  "رہوں</w>": 2975,
  "مست</w>": 2976,
  "ہوش</w>": 2977,
  "کھی</w>": 2978,
  "کڑی</w>": 2979,
  "ہمسا": 2980,
  "یۂ</w>": 2981,
  "چن": 2982,
  "کیونکر</w>": 2983,
  "نباہ</w>": 2984,
  "اسباب</w>": 2985,
  "سوزش</w>": 2986,
  "فتنہ</w>": 2987,
  "ناحق</w>": 2988,
  "طاق": 2989,
  "خیز</w>": 2990,
  "بل": 2991,
  "لاگ</w>": 2992,
  "سلا</w>": 2993,
  "مشت</w>": 2994,
  "اج": 2995,
  "زا</w>": 2996,
  "بہہ</w>": 2997,
  "گداز</w>": 2998,
  "درست</w>": 2999,
  "شکستہ</w>": 3000,
  "دلا</w>": 3001,
  "طور</w>": 3002,
  "جھلک</w>": 3003,
  "جلوے</w>": 3004,
  "کباب</w>": 3005,
  "سوختہ</w>": 3006,
  "تکلیف</w>": 3007,
  "بھوں</w>": 3008,
  "کھینچی</w>": 3009,
  "آزار</w>": 3010,
  "خریدار</w>": 3011,
  "مجنوں</w>": 3012,
  "وبال</w>": 3013,
  "ناچار</w>": 3014,
  "سہل</w>": 3015,
  "بنی</w>": 3016,
  "بگڑی</w>": 3017,
  "پہلی</w>": 3018,
  "جدائی</w>": 3019,
  "ساعت</w>": 3020,
  "ستوں</w>": 3021,
  "دوڑے</w>": 3022,
  "گرمی</w>": 3023,
  "مانی</w>": 3024,
  "ٹپکے</w>": 3025,
  "رخصت</w>": 3026,
  "مقصود</w>": 3027,
  "سوائے</w>": 3028,
  "جود</w>": 3029,
  "ہرگز</w>": 3030,
  "مانے</w>": 3031,
  "بود</w>": 3032,
  "رمز</w>": 3033,
  "ولیکن</w>": 3034,
  "غنچہ</w>": 3035,
  "دشوار</w>": 3036,
  "خوباں</w>": 3037,
  "ضع": 3038,
  "مود</w>": 3039,
  "یش</w>": 3040,
  "رفتگاں</w>": 3041,
  "مجلس</w>": 3042,
  "زی": 3043,
  "حیر": 3044,
  "مف": 3045,
  "لس</w>": 3046,
  "برے</w>": 3047,
  "مغ": 3048,
  "بچوں</w>": 3049,
  "تیور</w>": 3050,
  "لیک</w>": 3051,
  "کھل</w>": 3052,
  "ستہ</w>": 3053,
  "ظرف</w>": 3054,
  "سہ</w>": 3055,
  "وسی": 3056,
  "گرفتاری</w>": 3057,
  "سرو</w>": 3058,
  "پیارے</w>": 3059,
  "خرابے</w>": 3060,
  "شنا": 3061,
  "محیط</w>": 3062,
  "خالی</w>": 3063,
  "پردے</w>": 3064,
  "مقصد</w>": 3065,
  "مدعا</w>": 3066,
  "مرنا</w>": 3067,
  "بنائے</w>": 3068,
  "بگڑ</w>": 3069,
  "فقیروں</w>": 3070,
  "کھلتی</w>": 3071,
  "کسو</w>": 3072,
  "چاہتے</w>": 3073,
  "ٹپکا</w>": 3074,
  "ملیے</w>": 3075,
  "برنگ</w>": 3076,
  "سراپا</w>": 3077,
  "وگرنہ</w>": 3078,
  "رکھتا</w>": 3079,
  "جانوں</w>": 3080,
  "ند": 3081,
  "گاں</w>": 3082,
  "انع</w>": 3083,
  "اوپر</w>": 3084,
  "بجا</w>": 3085,
  "نکلتے</w>": 3086,
  "انجان</w>": 3087,
  "چی": 3088,
  "پیکان</w>": 3089,
  "برسوں</w>": 3090,
  "قما": 3091,
  "گو": 3092,
  "دیوان</w>": 3093,
  "گہ</w>": 3094,
  "لوہو</w>": 3095,
  "ٹپکتا</w>": 3096,
  "لخت</w>": 3097,
  "کر": 3098,
  "جیسی</w>": 3099,
  "جاگ": 3100,
  "شن</w>": 3101,
  "شای": 3102,
  "کاہے</w>": 3103,
  "حیران</w>": 3104,
  "مال</w>": 3105,
  "سپر</w>": 3106,
  "رہیے</w>": 3107,
  "غفلت</w>": 3108,
  "اضطراب</w>": 3109,
  "رکھنے</w>": 3110,
  "کیں</w>": 3111,
  "نادان</w>": 3112,
  "قبر</w>": 3113,
  "ابھریں</w>": 3114,
  "کھینچے</w>": 3115,
  "قی": 3116,
  "اغ": 3117,
  "انجام</w>": 3118,
  "یو</w>": 3119,
  "مست": 3120,
  "عد</w>": 3121,
  "جان": 3122,
  "دعوی</w>": 3123,
  "لال</w>": 3124,
  "پائمال</w>": 3125,
  "کھلتیں</w>": 3126,
  "ضعف</w>": 3127,
  "تما": 3128,
  "نہال</w>": 3129,
  "عاشقی</w>": 3130,
  "قطرۂ</w>": 3131,
  "مژہ</w>": 3132,
  "سیاہ</w>": 3133,
  "جامۂ</w>": 3134,
  "احرام</w>": 3135,
  "کھولیں</w>": 3136,
  "برہم</w>": 3137,
  "نم</w>": 3138,
  "کرنا</w>": 3139,
  "ہووے</w>": 3140,
  "دراز</w>": 3141,
  "زے</w>": 3142,
  "مژۂ</w>": 3143,
  "پرہیز</w>": 3144,
  "مرض</w>": 3145,
  "بچھا</w>": 3146,
  "لاتے</w>": 3147,
  "یعنی</w>": 3148,
  "مانع</w>": 3149,
  "گریۂ</w>": 3150,
  "ربط</w>": 3151,
  "خاص</w>": 3152,
  "بچہ</w>": 3153,
  "یہیں</w>": 3154,
  "شرمندہ</w>": 3155,
  "آفاق</w>": 3156,
  "سف": 3157,
  "مداوا</w>": 3158,
  "آشفتہ</w>": 3159,
  "داور</w>": 3160,
  "انصاف</w>": 3161,
  "ڑی</w>": 3162,
  "آئینے</w>": 3163,
  "مقدور</w>": 3164,
  "پلک</w>": 3165,
  "ٹک": 3166,
  "ڑا</w>": 3167,
  "ق</w>": 3168,
  "نگر</w>": 3169,
  "پنجۂ</w>": 3170,
  "مژگاں</w>": 3171,
  "آہستہ</w>": 3172,
  "عتاب</w>": 3173,
  "غرق</w>": 3174,
  "تئیں</w>": 3175,
  "جاگتا</w>": 3176,
  "تد": 3177,
  "بیماری</w>": 3178,
  "ند</w>": 3179,
  "آرام</w>": 3180,
  "مجبو": 3181,
  "تہمت</w>": 3182,
  "مخ": 3183,
  "او": 3184,
  "ٹی": 3185,
  "چھے</w>": 3186,
  "تی": 3187,
  "کھے</w>": 3188,
  "امام</w>": 3189,
  "قبلہ</w>": 3190,
  "کوچے</w>": 3191,
  "مسجد</w>": 3192,
  "نگا</w>": 3193,
  "رق": 3194,
  "حاصل</w>": 3195,
  "مند": 3196,
  "مول</w>": 3197,
  "غلام</w>": 3198,
  "خام</w>": 3199,
  "ائ": 3200,
  "جت</w>": 3201,
  "رم</w>": 3202,
  "خور": 3203,
  "دین</w>": 3204,
  "پوچھتے</w>": 3205,
  "لام</w>": 3206,
  "لئے</w>": 3207,
  "میداں</w>": 3208,
  "وصف</w>": 3209,
  "مصیبت</w>": 3210,
  "اٹھانا</w>": 3211,
  "گزار": 3212,
  "ار": 3213,
  "عزت</w>": 3214,
  "نیندوں</w>": 3215,
  "حواس</w>": 3216,
  "شکار</w>": 3217,
  "زبوں</w>": 3218,
  "قص": 3219,
  "پرتو</w>": 3220,
  "مہتاب</w>": 3221,
  "معذور</w>": 3222,
  "دوری</w>": 3223,
  "دروازہ</w>": 3224,
  "معمور</w>": 3225,
  "ناو</w>": 3226,
  "نیش</w>": 3227,
  "چھپے</w>": 3228,
  "کیونکے</w>": 3229,
  "چور</w>": 3230,
  "رنجور</w>": 3231,
  "نکا</w>": 3232,
  "شرط</w>": 3233,
  "بیش</w>": 3234,
  "گرانی</w>": 3235,
  "تھام</w>": 3236,
  "ائیے</w>": 3237,
  "طالع</w>": 3238,
  "زلیخا</w>": 3239,
  "انت": 3240,
  "رح": 3241,
  "اسیری</w>": 3242,
  "سلیقے</w>": 3243,
  "کامی": 3244,
  "گوشہ</w>": 3245,
  "شاع": 3246,
  "پیچاں</w>": 3247,
  "اوراق</w>": 3248,
  "مصور</w>": 3249,
  "مغرور</w>": 3250,
  "یت</w>": 3251,
  "تاثیر</w>": 3252,
  "غنچے</w>": 3253,
  "لگ": 3254,
  "آزا": 3255,
  "ہیچ</w>": 3256,
  "تقصیر</w>": 3257,
  "لذت</w>": 3258,
  "جاہ</w>": 3259,
  "شم</w>": 3260,
  "سلیماں</w>": 3261,
  "شتر</w>": 3262,
  "نم": 3263,
  "ط</w>": 3264,
  "دان": 3265,
  "بہتر</w>": 3266,
  "وق</w>": 3267,
  "ڈھب</w>": 3268,
  "تازہ</w>": 3269,
  "سوتے</w>": 3270,
  "جاویں</w>": 3271,
  "رگی</w>": 3272,
  "فریبی</w>": 3273,
  "پڑھتے</w>": 3274,
  "عل": 3275,
  "فض": 3276,
  "پڑھ": 3277,
  "گن": 3278,
  "پھن": 3279,
  "درو": 3280,
  "داغوں</w>": 3281,
  "زرد</w>": 3282,
  "جایا</w>": 3283,
  "کاو</w>": 3284,
  "تھ</w>": 3285,
  "چھڑ": 3286,
  "سکتا</w>": 3287,
  "کٹ": 3288,
  "اٹھایا</w>": 3289,
  "انی</w>": 3290,
  "تنک</w>": 3291,
  "جلایا</w>": 3292,
  "شمشیر</w>": 3293,
  "طاقت</w>": 3294,
  "بخشش</w>": 3295,
  "کشتۂ</w>": 3296,
  "غیرت</w>": 3297,
  "ایت</w>": 3298,
  "رلایا</w>": 3299,
  "کہسار</w>": 3300,
  "روتا</w>": 3301,
  "اڑ": 3302,
  "دل": 3303,
  "فتہ</w>": 3304,
  "اہ": 3305,
  "گشتہ</w>": 3306,
  "قی</w>": 3307,
  "امر</w>": 3308,
  "مند</w>": 3309,
  "سوتا</w>": 3310,
  "تخم</w>": 3311,
  "دھو": 3312,
  "ڈبو": 3313,
  "جر": 3314,
  "گال": 3315,
  "چھ</w>": 3316,
  "نہانی</w>": 3317,
  "فشانی</w>": 3318,
  "زندگانی</w>": 3319,
  "مہربانی</w>": 3320,
  "دھوکا</w>": 3321,
  "سرگرانی</w>": 3322,
  "آرز": 3323,
  "رد</w>": 3324,
  "پیام</w>": 3325,
  "زم": 3326,
  "ذلت</w>": 3327,
  "مت": 3328,
  "صل</w>": 3329,
  "چڑ": 3330,
  "لوح</w>": 3331,
  "زۂ</w>": 3332,
  "ستگی</w>": 3333,
  "کھولتے</w>": 3334,
  "پڑیں</w>": 3335,
  "لب": 3336,
  "اح": 3337,
  "لت</w>": 3338,
  "کلفت</w>": 3339,
  "سان": 3340,
  "پہنچ": 3341,
  "ولے</w>": 3342,
  "دیکھ": 3343,
  "میت</w>": 3344,
  "نعش</w>": 3345,
  "کثرت</w>": 3346,
  "فقی": 3347,
  "امی": 3348,
  "گل": 3349,
  "دوستاں</w>": 3350,
  "عار</w>": 3351,
  "ذرہ</w>": 3352,
  "ظہور</w>": 3353,
  "نش": 3354,
  "کلیم</w>": 3355,
  "خرمن</w>": 3356,
  "شعور</w>": 3357,
  "سۂ</w>": 3358,
  "یکسر</w>": 3359,
  "است": 3360,
  "فہم</w>": 3361,
  "رائی</w>": 3362,
  "چم</w>": 3363,
  "رہرو": 3364,
  "فہ</w>": 3365,
  "معنی</w>": 3366,
  "رنگی": 3367,
  "مجسم</w>": 3368,
  "ہلاک</w>": 3369,
  "عرق</w>": 3370,
  "آلو": 3371,
  "نس</w>": 3372,
  "اتی</w>": 3373,
  "لاتی</w>": 3374,
  "تھوڑی</w>": 3375,
  "جمع": 3376,
  "روگ</w>": 3377,
  "معشوق</w>": 3378,
  "خواہاں</w>": 3379,
  "نما": 3380,
  "ئش</w>": 3381,
  "ناز": 3382,
  "خال</w>": 3383,
  "انتخاب</w>": 3384,
  "بولا</w>": 3385,
  "جھی": 3386,
  "ویں</w>": 3387,
  "استخواں</w>": 3388,
  "ریر</w>": 3389,
  "روتے</w>": 3390,
  "خل</w>": 3391,
  "نمود</w>": 3392,
  "اخیر</w>": 3393,
  "جاوے</w>": 3394,
  "سروں</w>": 3395,
  "الی</w>": 3396,
  "نت</w>": 3397,
  "لکھنا</w>": 3398,
  "اد</w>": 3399,
  "گوہر</w>": 3400,
  "خور</w>": 3401,
  "پت": 3402,
  "آرا</w>": 3403,
  "طائر</w>": 3404,
  "اڑتے</w>": 3405,
  "واقف</w>": 3406,
  "طنز</w>": 3407,
  "اشارہ</w>": 3408,
  "لاتا</w>": 3409,
  "تواں</w>": 3410,
  "رخ": 3411,
  "تشنۂ</w>": 3412,
  "گوا": 3413,
  "بولتا</w>": 3414,
  "آندھیوں</w>": 3415,
  "ارادے</w>": 3416,
  "جلتا</w>": 3417,
  "وسیمؔ</w>": 3418,
  "پاتے</w>": 3419,
  "ڈالی</w>": 3420,
  "ڑنے</w>": 3421,
  "شاخوں</w>": 3422,
  "کھاتے</w>": 3423,
  "سمجھتا</w>": 3424,
  "رشتوں</w>": 3425,
  "دہائی</w>": 3426,
  "محسوس</w>": 3427,
  "فیصلہ</w>": 3428,
  "خلاف</w>": 3429,
  "صفائی</w>": 3430,
  "پچھ": 3431,
  "بھرو": 3432,
  "شامل</w>": 3433,
  "فطرت</w>": 3434,
  "بارش</w>": 3435,
  "نہا": 3436,
  "قربت</w>": 3437,
  "وفا": 3438,
  "مذاق</w>": 3439,
  "شر": 3440,
  "دشمنی</w>": 3441,
  "گزاری</w>": 3442,
  "وفائی</w>": 3443,
  "نبھ": 3444,
  "قطرے</w>": 3445,
  "پائیں</w>": 3446,
  "بڑھ": 3447,
  "اتا</w>": 3448,
  "بچھ": 3449,
  "سنائے</w>": 3450,
  "بتا": 3451,
  "زو": 3452,
  "محبتوں</w>": 3453,
  "چہ": 3454,
  "لکھتا</w>": 3455,
  "اندھیرا</w>": 3456,
  "کھونے</w>": 3457,
  "دھیان</w>": 3458,
  "مم": 3459,
  "اندر</w>": 3460,
  "لک</w>": 3461,
  "اداسی</w>": 3462,
  "سمجھتے</w>": 3463,
  "مل": 3464,
  "اپنوں</w>": 3465,
  "چلنا</w>": 3466,
  "ٹھ": 3467,
  "رونق</w>": 3468,
  "رف": 3469,
  "ضد</w>": 3470,
  "جاری</w>": 3471,
  "حوص": 3472,
  "باری</w>": 3473,
  "لیتا</w>": 3474,
  "صحرائے</w>": 3475,
  "پیاری</w>": 3476,
  "بتائے</w>": 3477,
  "یقی": 3478,
  "کئی</w>": 3479,
  "بت": 3480,
  "چاہوں</w>": 3481,
  "شا</w>": 3482,
  "تعلق</w>": 3483,
  "ٹوٹ</w>": 3484,
  "تقاض": 3485,
  "پرانا</w>": 3486,
  "رکھنا</w>": 3487,
  "اپ": 3488,
  "رشتے</w>": 3489,
  "بھرم</w>": 3490,
  "بھیڑ</w>": 3491,
  "پہچانا</w>": 3492,
  "مکان</w>": 3493,
  "بھیگ": 3494,
  "بہانہ</w>": 3495,
  "بن": 3496,
  "وی": 3497,
  "لیوں</w>": 3498,
  "چھت</w>": 3499,
  "سیوں</w>": 3500,
  "مصلحت</w>": 3501,
  "مٹنے</w>": 3502,
  "سلطنت</w>": 3503,
  "ئیوں</w>": 3504,
  "بروں</w>": 3505,
  "حادث": 3506,
  "مسکر": 3507,
  "کھائی</w>": 3508,
  "نس": 3509,
  "ویران</w>": 3510,
  "پرندے</w>": 3511,
  "مج": 3512,
  "ھو": 3513,
  "تل": 3514,
  "ارا": 3515,
  "تجربہ</w>": 3516,
  "نذر</w>": 3517,
  "آرزوئے</w>": 3518,
  "احتیا": 3519,
  "زی</w>": 3520,
  "صب": 3521,
  "گزریں</w>": 3522,
  "سمندروں</w>": 3523,
  "لہجے</w>": 3524,
  "شرا": 3525,
  "،</w>": 3526,
  "کال": 3527,
  "سمجھنے</w>": 3528,
  "صف": 3529,
  "حہ</w>": 3530,
  "فصی": 3531,
  "شدت</w>": 3532,
  "اندا": 3533,
  "زہ</w>": 3534,
  "دکھاتا</w>": 3535,
  "دستک</w>": 3536,
  "شرما": 3537,
  "کنارے</w>": 3538,
  "موڑ</w>": 3539,
  "ضروری</w>": 3540,
  "الات</w>": 3541,
  "سانسوں</w>": 3542,
  "بسا</w>": 3543,
  "سہ": 3544,
  "گم": 3545,
  "جذ": 3546,
  "پیروں</w>": 3547,
  "گھروں</w>": 3548,
  "ڑھ": 3549,
  "بنانے</w>": 3550,
  "با</w>": 3551,
  "دکھلا</w>": 3552,
  "ڑیں</w>": 3553,
  "گرا</w>": 3554,
  "چلنے</w>": 3555,
  "عزم</w>": 3556,
  "دکھ</w>": 3557,
  "جلانا</w>": 3558,
  "کوشش</w>": 3559,
  "طا": 3560,
  "تس": 3561,
  "غموں</w>": 3562,
  "اونچ": 3563,
  "دکھانے</w>": 3564,
  "معر": 3565,
  "کرو": 3566,
  "صدا": 3567,
  "رستے</w>": 3568,
  "نکال</w>": 3569,
  "برائی</w>": 3570,
  "بہتے</w>": 3571,
  "بڑ": 3572,
  "لتیں</w>": 3573,
  "عرو": 3574,
  "زوال</w>": 3575,
  "اٹھائیں</w>": 3576,
  "متیں</w>": 3577,
  "ئی": 3578,
  "اصو": 3579,
  "شرافت</w>": 3580,
  "امیدیں</w>": 3581,
  "ڈھونڈ</w>": 3582,
  "چراغوں</w>": 3583,
  "ہلا</w>": 3584,
  "مرضی</w>": 3585,
  "کائیں</w>": 3586,
  "قہ": 3587,
  "لائیں</w>": 3588,
  "احساس</w>": 3589,
  "خشک</w>": 3590,
  "ووں</w>": 3591,
  "بساط</w>": 3592,
  "بنا": 3593,
  "شری": 3594,
  "فوں</w>": 3595,
  "محدود</w>": 3596,
  "رکھوں</w>": 3597,
  "لمحوں</w>": 3598,
  "اخ": 3599,
  "تیا": 3600,
  "بتاتے</w>": 3601,
  "رشیں</w>": 3602,
  "ٹوٹی</w>": 3603,
  "کہانی</w>": 3604,
  "ڈوبا</w>": 3605,
  "عمل</w>": 3606,
  "راستوں</w>": 3607,
  "پیچ</w>": 3608,
  "بتلا": 3609,
  "تاری": 3610,
  "باک</w>": 3611,
  "پاتا</w>": 3612,
  "پانا</w>": 3613,
  "خواری</w>": 3614,
  "کاری</w>": 3615,
  "زاری</w>": 3616,
  "چنگاری</w>": 3617,
  "بھولی</w>": 3618,
  "نشانہ</w>": 3619,
  "لاوں</w>": 3620,
  "تذ": 3621,
  "زود</w>": 3622,
  "فرازؔ</w>": 3623,
  "آوں</w>": 3624,
  "شناس</w>": 3625,
  "سوچ": 3626,
  "وار": 3627,
  "فتگی</w>": 3628,
  "گرچہ</w>": 3629,
  "سپردگی</w>": 3630,
  "کلا": 3631,
  "ریوں</w>": 3632,
  "بیل</w>": 3633,
  "چاہت</w>": 3634,
  "تھکن</w>": 3635,
  "ہتھیلی</w>": 3636,
  "راب</w>": 3637,
  "اللہ</w>": 3638,
  "پاگل</w>": 3639,
  "وابستہ</w>": 3640,
  "مع</w>": 3641,
  "عبادت</w>": 3642,
  "فقر</w>": 3643,
  "اکیلے</w>": 3644,
  "طاعت</w>": 3645,
  "راضی</w>": 3646,
  "اذ": 3647,
  "جنبش</w>": 3648,
  "قائم</w>": 3649,
  "انۂ</w>": 3650,
  "تج": 3651,
  "امکاں</w>": 3652,
  "پیماں</w>": 3653,
  "احساں</w>": 3654,
  "فسر": 3655,
  "توقع</w>": 3656,
  "پکارے</w>": 3657,
  "ٹھی</w>": 3658,
  "منا</w>": 3659,
  "اجن": 3660,
  "دھند</w>": 3661,
  "چھٹ</w>": 3662,
  "حال": 3663,
  "معج": 3664,
  "تت": 3665,
  "لیاں</w>": 3666,
  "فروش</w>": 3667,
  "تراش</w>": 3668,
  "شبستاں</w>": 3669,
  "مکیں</w>": 3670,
  "کہانیاں</w>": 3671,
  "بال": 3672,
  "ڈوبنے</w>": 3673,
  "تکلف</w>": 3674,
  "کافی</w>": 3675,
  "زہ": 3676,
  "ٹھکانہ</w>": 3677,
  "پرانے</w>": 3678,
  "پندار</w>": 3679,
  "محروم</w>": 3680,
  "شرمند": 3681,
  "دھڑکتا</w>": 3682,
  "فرشتوں</w>": 3683,
  "حجابوں</w>": 3684,
  "نص": 3685,
  "کرشمے</w>": 3686,
  "خرام</w>": 3687,
  "قالب</w>": 3688,
  "چال": 3689,
  "اچھل</w>": 3690,
  "راکھ</w>": 3691,
  "پیا</w>": 3692,
  "شیوہ</w>": 3693,
  "سون": 3694,
  "خلقت</w>": 3695,
  "دروازے</w>": 3696,
  "غلط</w>": 3697,
  "رفاقت</w>": 3698,
  "گزارے</w>": 3699,
  "مارے</w>": 3700,
  "مد</w>": 3701,
  "لرزاں</w>": 3702,
  "پہنچی</w>": 3703,
  "ہن</w>": 3704,
  "واری</w>": 3705,
  "ڈھونڈھ": 3706,
  "نادم</w>": 3707,
  "نکہت</w>": 3708,
  "غنچۂ</w>": 3709,
  "دہلیز</w>": 3710,
  "اخلا": 3711,
  "ص</w>": 3712,
  "ڈوبتے</w>": 3713,
  "لازم</w>": 3714,
  "سدا</w>": 3715,
  "بع": 3716,
  "ہنستے</w>": 3717,
  "بھگو": 3718,
  "کھوئے</w>": 3719,
  "سکندر</w>": 3720,
  "زعم</w>": 3721,
  "مجھی</w>": 3722,
  "ناگہاں</w>": 3723,
  "خلد</w>": 3724,
  "واق": 3725,
  "عارف</w>": 3726,
  "ائی": 3727,
  "مثال</w>": 3728,
  "بظاہر</w>": 3729,
  "ڑنا</w>": 3730,
  "محل</w>": 3731,
  "شاعر</w>": 3732,
  "محفوظ</w>": 3733,
  "تیوں</w>": 3734,
  "اٹھاتے</w>": 3735,
  "عافیت</w>": 3736,
  "موسموں</w>": 3737,
  "عداوت</w>": 3738,
  "دشمنوں</w>": 3739,
  "گہ": 3740,
  "جنگ": 3741,
  "انہی</w>": 3742,
  "قاف": 3743,
  "محف": 3744,
  "تماشا": 3745,
  "یکتا</w>": 3746,
  "منزلیں</w>": 3747,
  "نصی": 3748,
  "کیمیا</w>": 3749,
  "سایا</w>": 3750,
  "پھیلا</w>": 3751,
  "توفیق</w>": 3752,
  "مسلسل</w>": 3753,
  "فضاوں</w>": 3754,
  "ہوتیں</w>": 3755,
  "حل</w>": 3756,
  "شائ": 3757,
  "قلزم</w>": 3758,
  "جھل</w>": 3759,
  "خواہ": 3760,
  "پوری</w>": 3761,
  "صدائیں</w>": 3762,
  "دعائیں</w>": 3763,
  "پلٹ</w>": 3764,
  "اعت": 3765,
  "باغباں</w>": 3766,
  "پیکر</w>": 3767,
  "جلاتے</w>": 3768,
  "برپا</w>": 3769,
  "جولاں</w>": 3770,
  "چاہیئے</w>": 3771,
  "ہوائے</w>": 3772,
  "ث": 3773,
  "مقد": 3774,
  "راہوں</w>": 3775,
  "ڈھال</w>": 3776,
  "روزن</w>": 3777,
  "حاضر</w>": 3778,
  "؟": 3779,
  "آشنائی</w>": 3780,
  "اختلا": 3781,
  "لاوے</w>": 3782,
  "طع": 3783,
  "دیوں</w>": 3784,
  "وحش": 3785,
  "جئے</w>": 3786,
  "دات</w>": 3787,
  "دستار</w>": 3788,
  "تکرار</w>": 3789,
  "تعمیر</w>": 3790,
  "اعتماد</w>": 3791,
  "ہل": 3792,
  "دکاں</w>": 3793,
  "بنتی</w>": 3794,
  "اڑی</w>": 3795,
  "فراغت</w>": 3796,
  "آبلہ</w>": 3797,
  "جھے</w>": 3798,
  "عتیں</w>": 3799,
  "عبا": 3800,
  "وض": 3801,
  "نبا": 3802,
  "پرانی</w>": 3803,
  "رفا": 3804,
  "بھلے</w>": 3805,
  "رشتۂ</w>": 3806,
  "ز</w>": 3807,
  "بھولنے</w>": 3808,
  "ماتھے</w>": 3809,
  "نزدیک</w>": 3810,
  "رتیں</w>": 3811,
  "مسافت</w>": 3812,
  "سویا</w>": 3813,
  "کلاہ</w>": 3814,
  "بھلی</w>": 3815,
  "جگرؔ</w>": 3816,
  "صداقت</w>": 3817,
  "بغاوت</w>": 3818,
  "صلے</w>": 3819,
  "شہہ</w>": 3820,
  "روت</w>": 3821,
  "جالبؔ</w>": 3822,
  "بڑھے</w>": 3823,
  "گمان</w>": 3824,
  "معصوم</w>": 3825,
  "وال": 3826,
  "زخمی</w>": 3827,
  "مسل": 3828,
  "ہمی</w>": 3829,
  "پھولوں</w>": 3830,
  "یز</w>": 3831,
  "پرست</w>": 3832,
  "گریبان</w>": 3833,
  "ذرے</w>": 3834,
  "عرصۂ</w>": 3835,
  "بہلا</w>": 3836,
  "ون": 3837,
  "رسو": 3838,
  "نوا": 3839,
  "سرد</w>": 3840,
  "پیاسی</w>": 3841,
  "تذکر": 3842,
  "وقف</w>": 3843,
  "نز": 3844,
  "بیکار</w>": 3845,
  "اندھ": 3846,
  "یاری</w>": 3847,
  "جگا": 3848,
  "ندر</w>": 3849,
  "سپ": 3850,
  "روپ</w>": 3851,
  "تاریکی</w>": 3852,
  "نگری</w>": 3853,
  "صحرا": 3854,
  "اروں</w>": 3855,
  "سناٹا</w>": 3856,
  "تخت</w>": 3857,
  "بریں</w>": 3858,
  "دیس</w>": 3859,
  "التفات</w>": 3860,
  "سرور</w>": 3861,
  "‌</w>": 3862,
  "رہنما": 3863,
  "بک</w>": 3864,
  "افی</w>": 3865,
  "سڑک</w>": 3866,
  "گائے</w>": 3867,
  "تسبیح</w>": 3868,
  "موز</w>": 3869,
  "جہ": 3870,
  "چھوڑے</w>": 3871,
  "جیون</w>": 3872,
  "ڑوں</w>": 3873,
  "راتا</w>": 3874,
  "خت</w>": 3875,
  "کھ</w>": 3876,
  "نین</w>": 3877,
  "تسکین</w>": 3878,
  "لگن</w>": 3879,
  "کھویا</w>": 3880,
  "والی</w>": 3881,
  "رس</w>": 3882,
  "دھن</w>": 3883,
  "نظم</w>": 3884,
  "حکو": 3885,
  "غالبؔ</w>": 3886,
  "انیسؔ</w>": 3887,
  "بندے</w>": 3888,
  "رہنما</w>": 3889,
  "ذی": 3890,
  "لائق</w>": 3891,
  "غیروں</w>": 3892,
  "بخش</w>": 3893,
  "بجھے</w>": 3894,
  "خرابات</w>": 3895,
  "چکی</w>": 3896,
  "مطمئن</w>": 3897,
  "حس": 3898,
  "ارماں</w>": 3899,
  "سک": 3900,
  "خوابیدہ</w>": 3901,
  "مغرب</w>": 3902,
  "فضائیں</w>": 3903,
  "نگہ": 3904,
  "حوصلۂ</w>": 3905,
  "باطل</w>": 3906,
  "ایماں</w>": 3907,
  "کشمکش</w>": 3908,
  "ہندو</w>": 3909,
  "مسلماں</w>": 3910,
  "سلط": 3911,
  "ہور</w>": 3912,
  "مصحفیؔ</w>": 3913,
  "کردار</w>": 3914,
  "قد": 3915,
  "امن</w>": 3916,
  "انسان": 3917,
  "تع": 3918,
  "صب</w>": 3919,
  "ملتی</w>": 3920,
  "سانپ</w>": 3921,
  "زمینوں</w>": 3922,
  "فی": 3923,
  "نشینوں</w>": 3924,
  "افتا": 3925,
  "بستیوں</w>": 3926,
  "جوم</w>": 3927,
  "موجۂ</w>": 3928,
  "سوئیں</w>": 3929,
  "برسات</w>": 3930,
  "طرب</w>": 3931,
  "ریز</w>": 3932,
  "ظر</w>": 3933,
  "کھڑے</w>": 3934,
  "یگ": 3935,
  "راض</w>": 3936,
  "افلاک</w>": 3937,
  "روک</w>": 3938,
  "گزرنا</w>": 3939,
  "آزادی</w>": 3940,
  "راک</w>": 3941,
  "خطرہ</w>": 3942,
  "خطرے</w>": 3943,
  "اقبالؔ</w>": 3944,
  "جوہر</w>": 3945,
  "پھیل</w>": 3946,
  "زم</w>": 3947,
  "حلقۂ</w>": 3948,
  "حلقے</w>": 3949,
  "مق": 3950,
  "نیا": 3951,
  "زشیں</w>": 3952,
  "وام</w>": 3953,
  "سام": 3954,
  "اسی": 3955,
  "جھو": 3956,
  "خبر": 3957,
  "خموشی</w>": 3958,
  "جفائیں</w>": 3959,
  "تہہ</w>": 3960,
  "غلط": 3961,
  "چم": 3962,
  "تپاک</w>": 3963,
  "جرأت</w>": 3964,
  "سرگرم</w>": 3965,
  "کال</w>": 3966,
  "ندی": 3967,
  "شیرا": 3968,
  "ری،</w>": 3969,
  "فق": 3970,
  "آہو</w>": 3971,
  "پان": 3972,
  "آنگ": 3973,
  "آش": 3974,
  "سانسیں</w>": 3975,
  "ں،</w>": 3976,
  "سہہ</w>": 3977,
  "دھیرے</w>": 3978,
  "مرتے</w>": 3979,
  "پگھل</w>": 3980,
  "درمی": 3981,
  "دکان</w>": 3982,
  "عرص": 3983,
  "پیڑوں</w>": 3984,
  "پتوں</w>": 3985,
  "الف</w>": 3986,
  "پریشانی</w>": 3987,
  "موم</w>": 3988,
  "چیں</w>": 3989,
  "آنگن</w>": 3990,
  "کھڑکی</w>": 3991,
  "نائی</w>": 3992,
  "سننے</w>": 3993,
  "شفق</w>": 3994,
  "بط</w>": 3995,
  "انس": 3996,
  "وسعت</w>": 3997,
  "کارا</w>": 3998,
  "چھوڑیں</w>": 3999,
  "آستیں</w>": 4000,
  "پاش</w>": 4001,
  "عا": 4002,
  "خراش</w>": 4003,
  "کھلنے</w>": 4004,
  "عتوں</w>": 4005,
  "نوک</w>": 4006,
  "رفو</w>": 4007,
  "روکے</w>": 4008,
  "نرم</w>": 4009,
  "دریچے</w>": 4010,
  "فائ": 4011,
  "خزانہ</w>": 4012,
  "یل</w>": 4013,
  "پلا</w>": 4014,
  "قیمت</w>": 4015,
  "ملتے</w>": 4016,
  "رنج": 4017,
  "استاد</w>": 4018,
  "شرار</w>": 4019,
  "حا": 4020,
  "بلندی</w>": 4021,
  "زن": 4022,
  "ھ</w>": 4023,
  "دوس": 4024,
  "وش</w>": 4025,
  "بہا": 4026,
  "پیشہ</w>": 4027,
  "ڈھونڈیں</w>": 4028,
  "اندھیر</w>": 4029,
  "ہم": 4030,
  "نقد</w>": 4031,
  "فسوں</w>": 4032,
  "دروں</w>": 4033,
  "مریض</w>": 4034,
  "شخ": 4035,
  "سمجھا</w>": 4036,
  "طر": 4037,
  "بندوں</w>": 4038,
  "کہئے</w>": 4039,
  "درس</w>": 4040,
  "مرہم</w>": 4041,
  "سیلی</w>": 4042,
  "دما": 4043,
  "چ</w>": 4044,
  "قو": 4045,
  "گنا": 4046,
  "ڑتا</w>": 4047,
  "بخت</w>": 4048,
  "انگڑائی</w>": 4049,
  "یف</w>": 4050,
  "کھانے</w>": 4051,
  "دگی</w>": 4052,
  "مسئ": 4053,
  "میلے</w>": 4054,
  "خوشیوں</w>": 4055,
  "نڈ": 4056,
  "چی</w>": 4057,
  "اگلے</w>": 4058,
  "محسنؔ</w>": 4059,
  "پڑھا</w>": 4060,
  "ڈھونڈا</w>": 4061,
  "بجز</w>": 4062,
  "جر</w>": 4063,
  "باسی</w>": 4064,
  "غلا": 4065,
  "اجاڑ</w>": 4066,
  "یر": 4067,
  "پارسائی</w>": 4068,
  "سناں</w>": 4069,
  "شعاع</w>": 4070,
  "آئنے</w>": 4071,
  "سراغ</w>": 4072,
  "وجہ</w>": 4073,
  "ڈھونڈے</w>": 4074,
  "آندھی</w>": 4075,
  "پتھروں</w>": 4076,
  "دھند": 4077,
  "عریاں</w>": 4078,
  "تجھی</w>": 4079,
  "یتیں</w>": 4080,
  "مانیں</w>": 4081,
  "پاک</w>": 4082,
  "دلی": 4083,
  "وت</w>": 4084,
  "دھنک</w>": 4085,
  "زل</w>": 4086,
  "بری": 4087,
  "شہرت</w>": 4088,
  "افسانۂ</w>": 4089,
  "دھرتی</w>": 4090,
  "ستارہ</w>": 4091,
  "بغاو": 4092,
  "کنارہ</w>": 4093,
  "گونج": 4094,
  "ٹوٹا</w>": 4095,
  "حبس</w>": 4096,
  "برف</w>": 4097,
  "جھ</w>": 4098,
  "گدا": 4099,
  "رازداں</w>": 4100,
  "ٹکتا</w>": 4101,
  "سکو</w>": 4102,
  "سینۂ</w>": 4103,
  "شار</w>": 4104,
  "کراں</w>": 4105,
  "سخ": 4106,
  "پہا": 4107,
  "گزرتے</w>": 4108,
  "پیم": 4109,
  "سپر": 4110,
  "فتح</w>": 4111,
  "موقوف</w>": 4112,
  "شرمسار</w>": 4113,
  "جلو": 4114,
  "زینت</w>": 4115,
  "وم</w>": 4116,
  "نڈھال</w>": 4117,
  "چھپ": 4118,
  "شاک</w>": 4119,
  "زت</w>": 4120,
  "بوس</w>": 4121,
  "ہنگامۂ</w>": 4122,
  "سیماب</w>": 4123,
  "صفت</w>": 4124,
  "کن": 4125,
  "شاداب</w>": 4126,
  "زنی</w>": 4127,
  "چون": 4128,
  "وحشی</w>": 4129,
  "پیمان</w>": 4130,
  "مک</w>": 4131,
  "دف": 4132,
  "دھی</w>": 4133,
  "بنتا</w>": 4134,
  "یلی</w>": 4135,
  "کانچ</w>": 4136,
  "اشارا</w>": 4137,
  "گلا": 4138,
  "رتوں</w>": 4139,
  "سراسر</w>": 4140,
  "چڑھتے</w>": 4141,
  "سنسان</w>": 4142,
  "مہمان</w>": 4143,
  "پڑتے</w>": 4144,
  "میز</w>": 4145,
  "مرغ</w>": 4146,
  "ظفرؔ</w>": 4147,
  "پانچ</w>": 4148,
  "خاب</w>": 4149,
  "کھولے</w>": 4150,
  "بوسے</w>": 4151,
  "راہیں</w>": 4152,
  "یاس</w>": 4153,
  "تین</w>": 4154,
  "غمزہ</w>": 4155,
  "بیدل</w>": 4156,
  "بادۂ</w>": 4157,
  "ناخن</w>": 4158,
  "تاج</w>": 4159,
  "خرد</w>": 4160,
  "خاکساری</w>": 4161,
  "قابل</w>": 4162,
  "معمو": 4163,
  "گنج</w>": 4164,
  "جلدی</w>": 4165,
  "سنج</w>": 4166,
  "کامل</w>": 4167,
  "اٹھائی</w>": 4168,
  "بگڑتا</w>": 4169,
  "عزی": 4170,
  "زو</w>": 4171,
  "بوسہ</w>": 4172,
  "جوئی</w>": 4173,
  "گوئی</w>": 4174,
  "عربدہ</w>": 4175,
  "پنبہ</w>": 4176,
  "سوزاں</w>": 4177,
  "بہاری</w>": 4178,
  "اری</w>": 4179,
  "چرچا</w>": 4180,
  "ماری</w>": 4181,
  "پرہ": 4182,
  "گاری</w>": 4183,
  "طو": 4184,
  "رعنا</w>": 4185,
  "بستہ</w>": 4186,
  "بیابان</w>": 4187,
  "خل": 4188,
  "لگاو": 4189,
  "بلائیں</w>": 4190,
  "عرف": 4191,
  "آتشیں</w>": 4192,
  "چرخ</w>": 4193,
  "منظور</w>": 4194,
  "دنیائے</w>": 4195,
  "ربا</w>": 4196,
  "ربائی</w>": 4197,
  "خدائی</w>": 4198,
  "سائی</w>": 4199,
  "داغ": 4200,
  "غل</w>": 4201,
  "عطر</w>": 4202,
  "طبع</w>": 4203,
  "دھرا</w>": 4204,
  "حر</w>": 4205,
  "دانش</w>": 4206,
  "مو</w>": 4207,
  "کاوش</w>": 4208,
  "زش</w>": 4209,
  "تھو": 4210,
  "بش</w>": 4211,
  "اکسیر</w>": 4212,
  "عن": 4213,
  "کیونکہ</w>": 4214,
  "سرشک</w>": 4215,
  "لاف</w>": 4216,
  "شش</w>": 4217,
  "شامت</w>": 4218,
  "موئے</w>": 4219,
  "حاجت</w>": 4220,
  "تپش</w>": 4221,
  "طبی": 4222,
  "درد": 4223,
  "ؔ": 4224,
  "رکھیں</w>": 4225,
  "دیجئے</w>": 4226,
  "آزر": 4227,
  "باندھ": 4228,
  "مرد</w>": 4229,
  "قصۂ</w>": 4230,
  "کاں</w>": 4231,
  "گیسوئے</w>": 4232,
  "تبہ</w>": 4233,
  "جادہ</w>": 4234,
  "لیل</w>": 4235,
  "ہی": 4236,
  "بٹ</w>": 4237,
  "مرد": 4238,
  "تش": 4239,
  "ریف</w>": 4240,
  "ام</w>": 4241,
  "فام</w>": 4242,
  "پے</w>": 4243,
  "آویں</w>": 4244,
  "پارۂ</w>": 4245,
  "کوچہ</w>": 4246,
  "گرد": 4247,
  "نسخہ</w>": 4248,
  "تیرہ</w>": 4249,
  "دائم</w>": 4250,
  "گاہے</w>": 4251,
  "وضع</w>": 4252,
  "نیت</w>": 4253,
  "پینے</w>": 4254,
  "فا</w>": 4255,
  "بگ": 4256,
  "بناو</w>": 4257,
  "تقریر</w>": 4258,
  "سوزن</w>": 4259,
  "مۂ</w>": 4260,
  "غما": 4261,
  "پیدن</w>": 4262,
  "نزع</w>": 4263,
  "چشمۂ</w>": 4264,
  "بقا</w>": 4265,
  "بستر</w>": 4266,
  "نع": 4267,
  "دنی</w>": 4268,
  "شکی": 4269,
  "حنا</w>": 4270,
  "خامۂ</w>": 4271,
  "فو": 4272,
  "ویسی</w>": 4273,
  "ندھ": 4274,
  "شوخی</w>": 4275,
  "بینی</w>": 4276,
  "ندے</w>": 4277,
  "لپٹ</w>": 4278,
  "نک</w>": 4279,
  "رونا</w>": 4280,
  "جزو</w>": 4281,
  "عین</w>": 4282,
  "باہم</w>": 4283,
  "نادانی</w>": 4284,
  "الہوس</w>": 4285,
  "عظ": 4286,
  "نامو": 4287,
  "خری": 4288,
  "سرشار</w>": 4289,
  "سانۂ</w>": 4290,
  "ندا": 4291,
  "وص": 4292,
  "اندھی": 4293,
  "فری": 4294,
  "آں</w>": 4295,
  "خلو": 4296,
  "کت</w>": 4297,
  "تح": 4298,
  "شیوۂ</w>": 4299,
  "تصو": 4300,
  "عاق": 4301,
  "شۂ</w>": 4302,
  "شہادت</w>": 4303,
  "طلسم</w>": 4304,
  "غیب</w>": 4305,
  "اندی": 4306,
  "دھی": 4307,
  "آد": 4308,
  "مس</w>": 4309,
  "ٹتی</w>": 4310,
  "تان</w>": 4311,
  "کروٹ</w>": 4312,
  "تمث": 4313,
  "جونؔ</w>": 4314,
  "چان": 4315,
  "آئی": 4316,
  "ختہ</w>": 4317,
  "جائیے</w>": 4318,
  "جھا</w>": 4319,
  "آغوش</w>": 4320,
  "زند": 4321,
  "نرا": 4322,
  "جن": 4323,
  "ولی</w>": 4324,
  "انج": 4325,
  "غال": 4326,
  "پردۂ</w>": 4327,
  "پردا</w>": 4328,
  "آرائش</w>": 4329,
  "بخشے</w>": 4330,
  "جاو": 4331,
  "حسی": 4332,
  "عر": 4333,
  "ضی</w>": 4334,
  "پیا": 4335,
  "نزدی": 4336,
  "انتظ": 4337,
  "رز": 4338,
  "صن": 4339,
  "شمش": 4340,
  "کمرے</w>": 4341,
  "الہ</w>": 4342,
  "مژ": 4343,
  "فرش</w>": 4344,
  "قات</w>": 4345,
  "تنگی</w>": 4346,
  "شوخئ</w>": 4347,
  "فس</w>": 4348,
  "لاں</w>": 4349,
  "میر</w>": 4350,
  "محرو": 4351,
  "دانی</w>": 4352,
  "ہے": 4353,
  "!</w>": 4354,
  "زمی": 4355,
  "آسمانی</w>": 4356,
  "فانی</w>": 4357,
  "آخ": 4358,
  "کشادہ</w>": 4359,
  "دھا</w>": 4360,
  "بیٹھیں</w>": 4361,
  "فرما</w>": 4362,
  "لمح": 4363,
  "ملو": 4364,
  "ہج": 4365,
  "جذبۂ</w>": 4366,
  "یاد": 4367,
  "دھڑکن</w>": 4368,
  "آسانی</w>": 4369,
  "پہچ": 4370,
  "وز</w>": 4371,
  "دہق": 4372,
  "قربان</w>": 4373,
  "غی": 4374,
  "عرفاں</w>": 4375,
  "نوبت</w>": 4376,
  "رانی</w>": 4377,
  "فشاں</w>": 4378,
  "واس": 4379,
  "بازو": 4380,
  "ماجرا</w>": 4381,
  "بین</w>": 4382,
  "ثا": 4383,
  "سوار</w>": 4384,
  "سامنا</w>": 4385,
  "غم": 4386,
  "اسرار</w>": 4387,
  "کائی</w>": 4388,
  "ہرجا": 4389,
  "تجلی</w>": 4390,
  "نیازی</w>": 4391,
  "حالیؔ</w>": 4392,
  "قع</w>": 4393,
  "تماشائی</w>": 4394,
  "بائی</w>": 4395,
  "اشا": 4396,
  "لیجئے</w>": 4397,
  "ڈال": 4398,
  "گفتار</w>": 4399,
  "زاہ": 4400,
  "ثبات</w>": 4401,
  "واردات</w>": 4402,
  "اپ</w>": 4403,
  "گنگ": 4404,
  "نیک</w>": 4405,
  "تسخیر</w>": 4406,
  "لڑائی</w>": 4407,
  "گاہی</w>": 4408,
  "فزا</w>": 4409,
  "پیوند</w>": 4410,
  "غر": 4411,
  "قمری</w>": 4412,
  "ختن</w>": 4413,
  "کہن</w>": 4414,
  "استغ": 4415,
  "راق</w>": 4416,
  "ولو": 4417,
  "جت": 4418,
  "باطن</w>": 4419,
  "مہر": 4420,
  "جھگ": 4421,
  "بزرگ</w>": 4422,
  "سان</w>": 4423,
  "مہماں</w>": 4424,
  "نڈھ": 4425,
  "غالب</w>": 4426,
  "خی</w>": 4427,
  "پک": 4428,
  "مرح": 4429,
  "خوانی</w>": 4430,
  "خوب": 4431,
  "ثانی</w>": 4432,
  "تاک</w>": 4433,
  "ویرانوں</w>": 4434,
  "شوریدہ</w>": 4435,
  "انگیز</w>": 4436,
  "سیا": 4437,
  "قؔ</w>": 4438,
  "زمانا</w>": 4439,
  "یؔ</w>": 4440,
  "صہ": 4441,
  "ممن": 4442,
  "ں": 4443,
  "داغؔ</w>": 4444,
  "شب": 4445,
  "قوت</w>": 4446,
  "مور</w>": 4447,
  "فرما": 4448,
  "بینائی</w>": 4449,
  "ثار</w>": 4450,
  "کامی</w>": 4451,
  "نامی</w>": 4452,
  "اصل</w>": 4453,
  "موج": 4454,
  "سرا</w>": 4455,
  "اوج</w>": 4456,
  "انی": 4457,
  "مسا": 4458,
  "کشا</w>": 4459,
  "بینوں</w>": 4460,
  "اص": 4461,
  "ندار</w>": 4462,
  "فراز": 4463,
  "فرش": 4464,
  "بسم</w>": 4465,
  "حدی": 4466,
  "معانی</w>": 4467,
  "ہد</w>": 4468,
  "خالق</w>": 4469,
  "نون</w>": 4470,
  "قرا": 4471,
  "دارا</w>": 4472,
  "عروس</w>": 4473,
  "صدف</w>": 4474,
  "بٹھا</w>": 4475,
  "اوس</w>": 4476,
  "ذ</w>": 4477,
  "فرنگ</w>": 4478,
  "دوام</w>": 4479,
  "کلیسا</w>": 4480,
  "خاکی</w>": 4481,
  "بلۂ</w>": 4482,
  "فرز": 4483,
  "بندۂ</w>": 4484,
  "خاشاک</w>": 4485,
  "گستاخ</w>": 4486,
  "نوازی</w>": 4487,
  "مکتب</w>": 4488,
  "سبق</w>": 4489,
  "نخ": 4490,
  "قل": 4491,
  "غت</w>": 4492,
  "حجا": 4493,
  "سازی</w>": 4494,
  "تماشائے</w>": 4495,
  "آشو": 4496,
  "عجم</w>": 4497,
  "جھج": 4498,
  "اقبال</w>": 4499,
  "ہما</w>": 4500,
  "برہ": 4501,
  "ارز": 4502,
  "بع</w>": 4503,
  "راز": 4504,
  "لوک</w>": 4505,
  "مبارک</w>": 4506,
  "نومی": 4507,
  "آئین</w>": 4508,
  "ادراک</w>": 4509,
  "مئ</w>": 4510,
  "ث</w>": 4511,
  "لاک</w>": 4512,
  "ء": 4513,
  "مری": 4514,
  "لس": 4515,
  "حض": 4516,
  "سپا": 4517,
  "خشت</w>": 4518,
  "پناہ</w>": 4519,
  "آشکار</w>": 4520,
  "باندھا</w>": 4521,
  "نۂ</w>": 4522,
  "الجھ</w>": 4523,
  "نار</w>": 4524,
  "ستاخ": 4525,
  "زاروں</w>": 4526,
  "نائے</w>": 4527,
  "شیوں</w>": 4528,
  "مشر": 4529,
  "لیم</w>": 4530,
  "ذر</w>": 4531,
  "مانۂ</w>": 4532,
  "زخ": 4533,
  "دستی</w>": 4534,
  "بالا</w>": 4535,
  "محرومی</w>": 4536,
  "سختی</w>": 4537,
  "ضا</w>": 4538,
  "نیستاں</w>": 4539,
  "چیر</w>": 4540,
  "خدایا</w>": 4541,
  "حور": 4542,
  "خیا": 4543,
  "طائ": 4544,
  "ادائے</w>": 4545,
  "لۂ</w>": 4546,
  "طاوس</w>": 4547,
  "سح": 4548,
  "گرمیاں</w>": 4549,
  "شوخ": 4550,
  "اشنا</w>": 4551,
  "سفینہ</w>": 4552,
  "زیب</w>": 4553,
  "جگر": 4554,
  "جمی</w>": 4555,
  "پاسب": 4556,
  "آست": 4557,
  "رم": 4558,
  "نغ": 4559,
  "قط": 4560,
  "صور</w>": 4561,
  "دلیل</w>": 4562,
  "بندی</w>": 4563,
  "فیض": 4564,
  "کرا": 4565,
  "زیارت</w>": 4566,
  "نغمۂ</w>": 4567,
  "نومیدی</w>": 4568,
  "کاف": 4569,
  "نظارے</w>": 4570,
  "قیا": 4571,
  "بیٹھنا</w>": 4572,
  "مکرر</w>": 4573,
  "جوا": 4574,
  "ناص": 4575,
  "آما": 4576,
  "سرکار</w>": 4577,
  "صر": 4578,
  "طلبی</w>": 4579,
  "زگار</w>": 4580,
  "نکالے</w>": 4581,
  "بیگانگی</w>": 4582,
  "غل": 4583,
  "کدۂ</w>": 4584,
  "صفات</w>": 4585,
  "نات</w>": 4586,
  "ہما": 4587,
  "مدام</w>": 4588,
  "ہندو": 4589,
  "صلیب</w>": 4590,
  "بولیں</w>": 4591,
  "ٹھوکریں</w>": 4592,
  "حسیں</w>": 4593,
  "جواہر</w>": 4594,
  "دیاں</w>": 4595,
  "خمو": 4596,
  "نمایاں</w>": 4597,
  "مای": 4598,
  "جھپ": 4599,
  "شرما</w>": 4600,
  "اما": 4601,
  "بق": 4602,
  "منطق</w>": 4603,
  "تھر": 4604,
  "سکھ</w>": 4605,
  "آہیں</w>": 4606,
  "جادۂ</w>": 4607,
  "مشیت</w>": 4608,
  "وس": 4609,
  "فاق</w>": 4610,
  "شکوے</w>": 4611,
  "بھاگے</w>": 4612,
  "پس": 4613,
  "وح": 4614,
  "دت</w>": 4615,
  "جگم": 4616,
  "نشتر</w>": 4617,
  "پشی": 4618,
  "خانوں</w>": 4619,
  "کرامات</w>": 4620,
  "عنوان</w>": 4621,
  "غف": 4622,
  "فراقؔ</w>": 4623,
  "شاد": 4624,
  "محفلیں</w>": 4625,
  "شادمانی</w>": 4626,
  "گمانی</w>": 4627,
  "تنگ": 4628,
  "سنوں</w>": 4629,
  "زبانی</w>": 4630,
  "معصو": 4631,
  "اق": 4632,
  "ہستئ</w>": 4633,
  "عش": 4634,
  "کین</w>": 4635,
  "تکل": 4636,
  "فات</w>": 4637,
  "آمادہ</w>": 4638,
  "رنگی</w>": 4639,
  "نیرنگ</w>": 4640,
  "ظل": 4641,
  "آہ": 4642,
  "اق</w>": 4643,
  "داز</w>": 4644,
  "بیگ": 4645,
  "گہہ</w>": 4646,
  "ٹھکانا</w>": 4647,
  "فسون</w>": 4648,
  "لرز": 4649,
  "ئیگاں</w>": 4650,
  "تنگئ</w>": 4651,
  "تہ": 4652,
  "بح": 4653,
  "افسردگی</w>": 4654,
  "تہذی": 4655,
  "باط": 4656,
  "نکہ": 4657,
  "پابند</w>": 4658,
  "مصل": 4659,
  "تاخیر</w>": 4660,
  "مشتاق</w>": 4661,
  "سیم": 4662,
  "ستئ</w>": 4663,
  "مذ": 4664,
  "شید</w>": 4665,
  "آشی": 4666,
  "ے": 4667,
  "محابا</w>": 4668,
  "افزا</w>": 4669,
  "نگۂ</w>": 4670,
  "نامۂ</w>": 4671,
  "بیگانۂ</w>": 4672,
  "شاق</w>": 4673,
  "سہا": 4674,
  "شبن": 4675,
  "زگی</w>": 4676,
  "کھٹکا</w>": 4677,
  "چنگا": 4678,
  "اڑنے</w>": 4679,
  "آن": 4680,
  "عقدۂ</w>": 4681,
  "دکھے</w>": 4682,
  "قدر": 4683,
  "شنی</w>": 4684,
  "خن": 4685,
  "منظ": 4686,
  "آغ": 4687,
  "ولیؔ</w>": 4688,
  "انکھیاں</w>": 4689,
  "جیوں</w>": 4690,
  "وو</w>": 4691,
  "منیں</w>": 4692,
  "طال": 4693,
  "نسخ": 4694,
  "مزا": 4695,
  "سجن</w>": 4696,
  "زلفاں</w>": 4697,
  "کھوتی</w>": 4698,
  "انکھ": 4699,
  "تجر": 4700,
  "کوثر</w>": 4701,
  "نئیں</w>": 4702,
  "تعریف</w>": 4703,
  "سریجن</w>": 4704,
  "حاں</w>": 4705,
  "رقی": 4706,
  "مبا": 4707,
  "طن": 4708,
  "حو": 4709,
  "سبزہ</w>": 4710,
  "سودائے</w>": 4711,
  "نمک</w>": 4712,
  "مکھ</w>": 4713,
  "حقی": 4714,
  "رازی</w>": 4715,
  "نیں</w>": 4716,
  "ھر</w>": 4717,
  "مایۂ</w>": 4718,
  "صفحۂ</w>": 4719,
  "نرگ": 4720,
  "ہند": 4721,
  "دوار</w>": 4722,
  "عالی</w>": 4723,
  "کنع": 4724,
  "لگایا</w>": 4725,
  "صے</w>": 4726,
  "اسد": 4727,
  "رقیبوں</w>": 4728,
  "نبض</w>": 4729,
  "پاس": 4730,
  "ناتو": 4731,
  "حیدر": 4732,
  "ہنسا</w>": 4733,
  "آدھی</w>": 4734,
  "بجائے</w>": 4735,
  "چل": 4736,
  "غر</w>": 4737,
  "گستاخی</w>": 4738,
  "ٹھن</w>": 4739,
  "یم</w>": 4740,
  "امیدی</w>": 4741,
  "بدہ</w>": 4742,
  "لاکھ": 4743,
  "نزا": 4744,
  "چوم</w>": 4745,
  "فسانا</w>": 4746,
  "احس": 4747,
  "آز": 4748,
  "علی</w>": 4749,
  "ناسزا</w>": 4750,
  "الت": 4751,
  "فائدہ</w>": 4752,
  "ماہ": 4753,
  "افشانی</w>": 4754,
  "جرأ": 4755,
  "بچئے</w>": 4756,
  "ڈھو": 4757,
  "مولا</w>": 4758,
  "پیالہ</w>": 4759,
  "یئے</w>": 4760,
  "رسی</w>": 4761,
  "ہر": 4762,
  "کجا</w>": 4763,
  "اکبرؔ</w>": 4764,
  "بیدہ</w>": 4765,
  "مایہ</w>": 4766,
  "طف": 4767,
  "لوم</w>": 4768,
  "جیب</w>": 4769,
  "دریا": 4770,
  "رف</w>": 4771,
  "لذ": 4772,
  "باع": 4773,
  "وس</w>": 4774,
  "مذہ": 4775,
  "ٹکا</w>": 4776,
  "تکر": 4777,
  "مکر": 4778,
  "جہن": 4779,
  "ہنوز</w>": 4780,
  "آرا": 4781,
  "دنیا": 4782,
  "تکلی": 4783,
  "نصیرؔ</w>": 4784,
  "طرا": 4785,
  "ماج": 4786,
  "امان": 4787,
  "خاں</w>": 4788,
  "لڑکا</w>": 4789,
  "ٹھنڈ": 4790,
  "سرنگ": 4791,
  "ناجیؔ</w>": 4792,
  "شانی</w>": 4793,
  "باہ</w>": 4794,
  "مصرو": 4795,
  "ثر</w>": 4796,
  "دروا": 4797,
  "زخ</w>": 4798,
  "ہتھ": 4799,
  "سور": 4800,
  "مصح": 4801,
  "انگشت</w>": 4802,
  "وئے</w>": 4803,
  "ضر</w>": 4804,
  "بھو</w>": 4805,
  "بھیگتا</w>": 4806,
  "ئم</w>": 4807,
  "اسدؔ</w>": 4808,
  "ۓ</w>": 4809,
  "تۂ</w>": 4810,
  "رہن</w>": 4811,
  "‌ہاۓ</w>": 4812,
  "لان</w>": 4813,
  "اض": 4814,
  "شوری": 4815,
  "خمیازہ</w>": 4816,
  "کمیں</w>": 4817,
  "پشت</w>": 4818,
  "بلائے</w>": 4819,
  "ہاۓ</w>": 4820,
  "غنچ": 4821,
  "شگفت": 4822,
  "نش</w>": 4823,
  "سویدا</w>": 4824,
  "جراحت</w>": 4825,
  "زنجی": 4826,
  "اختر</w>": 4827,
  "زلی": 4828,
  "گانی</w>": 4829,
  "اجزائے</w>": 4830,
  "ژ": 4831,
  "طوطی</w>": 4832,
  "جہت</w>": 4833,
  "زان": 4834,
  "تمکیں</w>": 4835,
  "ماندگی</w>": 4836,
  "سیل": 4837,
  "خمیا": 4838,
  "تقا": 4839,
  "مژگان</w>": 4840,
  "کشا": 4841,
  "کاغ": 4842,
  "جوئے</w>": 4843,
  "سون</w>": 4844,
  "دیگر</w>": 4845,
  "بیض": 4846,
  "چراغ": 4847,
  "آت": 4848,
  "فتا": 4849,
  "پاۓ</w>": 4850,
  "دادہ</w>": 4851,
  "تمامی</w>": 4852,
  "اٹھائیے</w>": 4853,
  "اۓ</w>": 4854,
  "خر": 4855,
  "دنداں</w>": 4856,
  "‌": 4857,
  "فطر": 4858,
  "پیغا": 4859,
  "جاے</w>": 4860,
  "طرہ</w>": 4861,
  "شعا": 4862,
  "ناامیدی</w>": 4863,
  "واماندگی</w>": 4864,
  "پیچ": 4865,
  "ریشہ</w>": 4866,
  "غاں</w>": 4867,
  "شق</w>": 4868,
  "شائے</w>": 4869,
  "باغ": 4870,
  "خستہ</w>": 4871,
  "طی</w>": 4872,
  "جست": 4873,
  "رون": 4874,
  "سلس": 4875,
  "خن</w>": 4876,
  "سبز": 4877,
  "افسر": 4878,
  "دگاں</w>": 4879,
  "ہائی</w>": 4880,
  "کث": 4881,
  "باندھتے</w>": 4882,
  "پیرا": 4883,
  "لیؔ</w>": 4884,
  "ایجا": 4885,
  "زائے</w>": 4886,
  "أ": 4887,
  "پنا": 4888,
  "عنی</w>": 4889,
  "ایاں</w>": 4890,
  "صبور</w>": 4891,
  "نشی": 4892,
  "انگی</w>": 4893,
  "تول</w>": 4894,
  "کتب</w>": 4895,
  "ماس</w>": 4896,
  "سوس</w>": 4897,
  "بھیجی</w>": 4898,
  "گہاں</w>": 4899,
  "معام": 4900,
  "کرش": 4901,
  "بیر</w>": 4902,
  "ۃ": 4903,
  "فرمائیے</w>": 4904
}