{
  "<pad>": 0,
  "<unk>": 1,
  "<sos>": 2,
  "<eos>": 3,
  "aahat</w>": 4,
  "sī</w>": 5,
  "koī</w>": 6,
  "aa.e</w>": 7,
  "to</w>": 8,
  "lagtā</w>": 9,
  "hai</w>": 10,
  "ki</w>": 11,
  "tum</w>": 12,
  "ho</w>": 13,
  "saaya</w>": 14,
  "lah": 15,
  "rā.e</w>": 16,
  "jab</w>": 17,
  "shāḳh</w>": 18,
  "haath</w>": 19,
  "lagā": 20,
  "te</w>": 21,
  "hī</w>": 22,
  "chaman</w>": 23,
  "meñ</w>": 24,
  "sharm": 25,
  "ā.e</w>": 26,
  "lachak</w>": 27,
  "jaa.e</w>": 28,
  "san": 29,
  "dal</w>": 30,
  "se</w>": 31,
  "maha": 32,
  "ktī</w>": 33,
  "huī</w>": 34,
  "pur-": 35,
  "kaif</w>": 36,
  "havā</w>": 37,
  "kā</w>": 38,
  "jhoñkā</w>": 39,
  "tak": 40,
  "oḍ": 41,
  "he</w>": 42,
  "hue</w>": 43,
  "tāroñ</w>": 44,
  "kī</w>": 45,
  "chamaktī</w>": 46,
  "chādar</w>": 47,
  "na": 48,
  "d": 49,
  "dī</w>": 50,
  "bal</w>": 51,
  "khaa.e</w>": 52,
  "raat</w>": 53,
  "ga.e</w>": 54,
  "kiran</w>": 55,
  "mere</w>": 56,
  "barābar</w>": 57,
  "chup": 58,
  "-": 59,
  "chā": 60,
  "p</w>": 61,
  "so</w>": 62,
  "mauj-e-": 63,
  "gul</w>": 64,
  "mauj-e-sabā</w>": 65,
  "sahar</w>": 66,
  "lagtī</w>": 67,
  "sar</w>": 68,
  "pā</w>": 69,
  "tak</w>": 70,
  "vo</w>": 71,
  "samāñ</w>": 72,
  "nazar</w>": 73,
  "ham</w>": 74,
  "ne</w>": 75,
  "har</w>": 76,
  "gaam</w>": 77,
  "pe</w>": 78,
  "saj": 79,
  "doñ</w>": 80,
  "ke</w>": 81,
  "jalā.e</w>": 82,
  "haiñ</w>": 83,
  "charāġh</w>": 84,
  "ab</w>": 85,
  "hameñ</w>": 86,
  "terī</w>": 87,
  "galī</w>": 88,
  "rāhguzar</w>": 89,
  "lamhe</w>": 90,
  "basī</w>": 91,
  "tirī</w>": 92,
  "yādoñ</w>": 93,
  "mahak</w>": 94,
  "aaj</w>": 95,
  "ḳhushbū</w>": 96,
  "safar</w>": 97,
  "jal</w>": 98,
  "gayā</w>": 99,
  "apnā</w>": 100,
  "nasheman</w>": 101,
  "baat</w>": 102,
  "nahīñ</w>": 103,
  "dekhnā</w>": 104,
  "ye</w>": 105,
  "aag</w>": 106,
  "kidhar</w>": 107,
  "saarī</w>": 108,
  "duniyā</w>": 109,
  "ġharī": 110,
  "boñ</w>": 111,
  "lahū</w>": 112,
  "bahtā</w>": 113,
  "zamīñ</w>": 114,
  "mujh</w>": 115,
  "ko</w>": 116,
  "mire</w>": 117,
  "ḳhuun</w>": 118,
  "tar</w>": 119,
  "ā": 120,
  "sū": 121,
  "da</w>": 122,
  "ahl-e-": 123,
  "siyāsat</w>": 124,
  "sivā</w>": 125,
  "sadī</w>": 126,
  "dushman-e-": 127,
  "arbāb-e-": 128,
  "hunar</w>": 129,
  "vāqi.a</w>": 130,
  "shahr</w>": 131,
  "kal</w>": 132,
  "aisā</w>": 133,
  "na</w>": 134,
  "huā</w>": 135,
  "aḳhbār</w>": 136,
  "daftar</w>": 137,
  "ḳhabar</w>": 138,
  "lucknow</w>": 139,
  "kyā</w>": 140,
  "galiyoñ</w>": 141,
  "muqaddar</w>": 142,
  "thā</w>": 143,
  "yahī</w>": 144,
  "ḳhāk-": 145,
  "basar</w>": 146,
  "tu": 147,
  "lū": 148,
  "-e-": 149,
  "sub.h</w>": 150,
  "nazreñ</w>": 151,
  "uthā</w>": 152,
  "dekh</w>": 153,
  "zarā</w>": 154,
  "shikast-e-": 155,
  "zul": 156,
  "mat-e-": 157,
  "shab</w>": 158,
  "muskurā</w>": 159,
  "ġham-e-": 160,
  "bahār</w>": 161,
  "o</w>": 162,
  "ġham-e-yār</w>": 163,
  "sab</w>": 164,
  "kuchh</w>": 165,
  "jahāñ</w>": 166,
  "bhī</w>": 167,
  "dil</w>": 168,
  "lagā</w>": 169,
  "kaun</w>": 170,
  "sau": 171,
  "ġhā": 172,
  "t</w>": 173,
  "le</w>": 174,
  "aa.ī</w>": 175,
  "hamāre</w>": 176,
  "zaḳhm-e-": 177,
  "tamannā</w>": 178,
  "tū</w>": 179,
  "aa</w>": 180,
  "ek</w>": 181,
  "samt</w>": 182,
  "ik</w>": 183,
  "āftāb</w>": 184,
  "ubh": 185,
  "r": 186,
  "egā</w>": 187,
  "charāġh-e-": 188,
  "dair-o-": 189,
  "haram</w>": 190,
  "bujhā</w>": 191,
  "vajūd-e-": 192,
  "ishq</w>": 193,
  "tārīḳh</w>": 194,
  "pata</w>": 195,
  "chale</w>": 196,
  "varaq</w>": 197,
  "ulat</w>": 198,
  "arz</w>": 199,
  "samā</w>": 200,
  "mile</w>": 201,
  "aur</w>": 202,
  "qubūl</w>": 203,
  "hausle</w>": 204,
  "ahl-e-vafā</w>": 205,
  "rishta</w>": 206,
  "gir": 207,
  "e": 208,
  "bāñ</w>": 209,
  "merī</w>": 210,
  "taraf</w>": 211,
  "bhā": 212,
  "gā</w>": 213,
  "karo</w>": 214,
  "duur</w>": 215,
  "ġhazā": 216,
  "loñ</w>": 217,
  "tarah</w>": 218,
  "chāhā</w>": 219,
  "tumheñ</w>": 220,
  "chāhne</w>": 221,
  "vāloñ</w>": 222,
  "ḳhud-": 223,
  "ba-ḳhud</w>": 224,
  "niind</w>": 225,
  "āñkhoñ</w>": 226,
  "ghu": 227,
  "lī</w>": 228,
  "jaatī</w>": 229,
  "mah": 230,
  "shab-e-ġham</w>": 231,
  "tire</w>": 232,
  "bā": 233,
  "tere</w>": 234,
  "bin</w>": 235,
  "hāthoñ</w>": 236,
  "ayā": 237,
  "ġh</w>": 238,
  "ḳhūb-": 239,
  "sūrat</w>": 240,
  "magar</w>": 241,
  "zahr</w>": 242,
  "pyā": 243,
  "is</w>": 244,
  "ziyāda</w>": 245,
  "nar": 246,
  "mī</w>": 247,
  "bar": 248,
  "tūñ</w>": 249,
  "zaḳhmoñ</w>": 250,
  "ch": 251,
  "gā": 252,
  "gun": 253,
  "gunā": 254,
  "kabhī</w>": 255,
  "un</w>": 256,
  "sī": 257,
  "noñ</w>": 258,
  "ḳhātir</w>": 259,
  "jo</w>": 260,
  "kte</w>": 261,
  "shi": 262,
  "zulfeñ</w>": 263,
  "āñkheñ</w>": 264,
  "abrū</w>": 265,
  "lab</w>": 266,
  "mash.hūr</w>": 267,
  "mi": 268,
  "sā": 269,
  "māyūs</w>": 270,
  "ai</w>": 271,
  "shab-e-": 272,
  "daurāñ</w>": 273,
  "abhī</w>": 274,
  "dard</w>": 275,
  "chamak": 276,
  "ujā": 277,
  "milā": 278,
  "hazāroñ</w>": 279,
  "chehre</w>": 280,
  "su": 281,
  "lagte</w>": 282,
  "savā": 283,
  "milā</w>": 284,
  "mirī</w>": 285,
  "mehnat</w>": 286,
  "si": 287,
  "la</w>": 288,
  "chand</w>": 289,
  "k": 290,
  "chhā": 291,
  "justujū</w>": 292,
  "kisī</w>": 293,
  "manzil</w>": 294,
  "thahar": 295,
  "diyā</w>": 296,
  "bha": 297,
  "rahe</w>": 298,
  "āvāra</w>": 299,
  "ḳhayāloñ</w>": 300,
  "zindagī</w>": 301,
  "jis</w>": 302,
  "tirā</w>": 303,
  "pyaar</w>": 304,
  "jaane</w>": 305,
  "nākām</w>": 306,
  "ruuh</w>": 307,
  "ġham</w>": 308,
  "chhupā</w>": 309,
  "lage</w>": 310,
  "mujhe</w>": 311,
  "bad-": 312,
  "duā</w>": 313,
  "pa": 314,
  "d-e-": 315,
  "ḳhātir-e-": 316,
  "muddat</w>": 317,
  "daaġh</w>": 318,
  "ḳhud</w>": 319,
  "bhalā</w>": 320,
  "āñsuoñ</w>": 321,
  "bhii": 322,
  "g</w>": 323,
  "bahut</w>": 324,
  "qarīb</w>": 325,
  "āvāz-e-": 326,
  "maiñ</w>": 327,
  "jā.ūñ</w>": 328,
  "band</w>": 329,
  "tamām</w>": 330,
  "jhāñ": 331,
  "ktā</w>": 332,
  "us</w>": 333,
  "kho</w>": 334,
  "sā</w>": 335,
  "jaatā</w>": 336,
  "huuñ</w>": 337,
  "kare</w>": 338,
  "burā</w>": 339,
  "sochtā</w>": 340,
  "la": 341,
  "ut": 342,
  "ūñgā</w>": 343,
  "ajnabī</w>": 344,
  "merā</w>": 345,
  "gaañv</w>": 346,
  "pahchān": 347,
  "tā</w>": 348,
  "vaqt</w>": 349,
  "raftār</w>": 350,
  "dikhātī</w>": 351,
  "baḍā</w>": 352,
  "ḳhauf</w>": 353,
  "bikhar</w>": 354,
  "aadmī</w>": 355,
  "vajūd</w>": 356,
  "far": 357,
  "d</w>": 358,
  "sāne": 359,
  "ha</w>": 360,
  "aad": 361,
  "h</w>": 362,
  "qadam</w>": 363,
  "hisāb</w>": 364,
  "rakh": 365,
  "iye</w>": 366,
  "talak</w>": 367,
  "vahī</w>": 368,
  "fāsla</w>": 369,
  "hikā": 370,
  "yat-e-": 371,
  "ġham-e-dil</w>": 372,
  "kashish</w>": 373,
  "rakhtī</w>": 374,
  "zamāna</w>": 375,
  "ġhaur</w>": 376,
  "suntā</w>": 377,
  "laakh</w>": 378,
  "sahī</w>": 379,
  "shah": 380,
  "roñ</w>": 381,
  "f": 382,
  "pā": 383,
  "thoñ</w>": 384,
  "laash</w>": 385,
  "kis</w>": 386,
  "liye</w>": 387,
  "phirte</w>": 388,
  "in</w>": 389,
  "unhīñ</w>": 390,
  "bātoñ</w>": 391,
  "sunte</w>": 392,
  "aatī</w>": 393,
  "hañsī</w>": 394,
  "be-": 395,
  "īmān</w>": 396,
  "the</w>": 397,
  "jin</w>": 398,
  "mausam</w>": 399,
  "kam</w>": 400,
  "hotī</w>": 401,
  "muft</w>": 402,
  "ilzām</w>": 403,
  "rakh</w>": 404,
  "dete</w>": 405,
  "barsā": 406,
  "toñ</w>": 407,
  "zulf</w>": 408,
  "chha": 409,
  "n": 410,
  "tī</w>": 411,
  "badan</w>": 412,
  "tāb": 413,
  "isheñ</w>": 414,
  "hañs</w>": 415,
  "karte</w>": 416,
  "aksar</w>": 417,
  "chāñdnī</w>": 418,
  "rātoñ</w>": 419,
  "unheñ</w>": 420,
  "sharm</w>": 421,
  "faḳh": 422,
  "r</w>": 423,
  "mulā": 424,
  "qā": 425,
  "log</w>": 426,
  "daur</w>": 427,
  "mahbū": 428,
  "b</w>": 429,
  "tālib</w>": 430,
  "mat": 431,
  "tūfān</w>": 432,
  "āvāz</w>": 433,
  "lekin</w>": 434,
  "safī": 435,
  "kahīñ</w>": 436,
  "duub</w>": 437,
  "pukār": 438,
  "ġham-e-daurāñ</w>": 439,
  "q": 440,
  "naam</w>": 441,
  "mansūb</w>": 442,
  "paras": 443,
  "tār</w>": 444,
  "mar": 445,
  "ġh": 446,
  "ū": 447,
  "alfāz</w>": 448,
  "iz.hār-e-": 449,
  "mohabbat</w>": 450,
  "tarī": 451,
  "qe</w>": 452,
  "nazroñ</w>": 453,
  "māyū": 454,
  "ahd-e-": 455,
  "ba": 456,
  "rat</w>": 457,
  "naq": 458,
  "baḍe</w>": 459,
  ".": 460,
  "itnā</w>": 461,
  "ghabrā": 462,
  "na.ī</w>": 463,
  "tarz-e-": 464,
  "adā</w>": 465,
  "badle</w>": 466,
  "us": 467,
  "dāman-": 468,
  "kashāñ</w>": 469,
  "miyāñ</w>": 470,
  "zor</w>": 471,
  "hamārā</w>": 472,
  "kahāñ</w>": 473,
  "thak</w>": 474,
  "kārvāñ</w>": 475,
  "vahīñ</w>": 476,
  "nayā</w>": 477,
  "gumāñ</w>": 478,
  "yaqīñ</w>": 479,
  "yūñhī</w>": 480,
  "darmiyāñ</w>": 481,
  "badalte</w>": 482,
  "rahte</w>": 483,
  "bas</w>": 484,
  "saal</w>": 485,
  "dāstāñ</w>": 486,
  "āzm": 487,
  "ā.": 488,
  "ish": 489,
  "oñ</w>": 490,
  "hujūm</w>": 491,
  "umr</w>": 492,
  "imtihāñ</w>": 493,
  "ghū": 494,
  "m": 495,
  "rahnā</w>": 496,
  "aage</w>": 497,
  "lam": 498,
  "ha-e-": 499,
  "hairat</w>": 500,
  "lafz</w>": 501,
  "saath</w>": 502,
  "deñ</w>": 503,
  "aise</w>": 504,
  "haañ</w>": 505,
  "jān-e-": 506,
  "hayā</w>": 507,
  "iqrār</w>": 508,
  "kiyā</w>": 509,
  "jitne</w>": 510,
  "badnām</w>": 511,
  "utnā</w>": 512,
  "pahle</w>": 513,
  "ḳhush-": 514,
  "chash": 515,
  "moñ</w>": 516,
  "chau": 517,
  "kan": 518,
  "nā</w>": 519,
  "so": 520,
  "ī</w>": 521,
  "hoshi": 522,
  "yār</w>": 523,
  "jaate</w>": 524,
  "achchhe</w>": 525,
  "kah</w>": 526,
  "pūchhe</w>": 527,
  "pūchh": 528,
  "vaale</w>": 529,
  "bīmār</w>": 530,
  "qatra</w>": 531,
  "sirf</w>": 532,
  "apne</w>": 533,
  "shakl</w>": 534,
  "dikhā.ī</w>": 535,
  "tab</w>": 536,
  "ḳhūñ-": 537,
  "bār</w>": 538,
  "par</w>": 539,
  "kitnī</w>": 540,
  "baar</w>": 541,
  "paḍe</w>": 542,
  "daur": 543,
  "e</w>": 544,
  "tanhā.ī</w>": 545,
  "milne</w>": 546,
  "aayā</w>": 547,
  "inkār</w>": 548,
  "nuq": 549,
  "sān</w>": 550,
  "fā</w>": 551,
  "samjhā": 552,
  "yaaro</w>": 553,
  "kārobār</w>": 554,
  "mahfil</w>": 555,
  "niiñd</w>": 556,
  "chhā.ī</w>": 557,
  "ḳhāmosh</w>": 558,
  "sher</w>": 559,
  "sunā": 560,
  "yā</w>": 561,
  "logoñ</w>": 562,
  "bedār</w>": 563,
  "socho</w>": 564,
  "jaano</w>": 565,
  "chāho</w>": 566,
  "rañg</w>": 567,
  "bhar": 568,
  "naqsha</w>": 569,
  "khīñchā</w>": 570,
  "ḳhā": 571,
  "ka</w>": 572,
  "tayyār</w>": 573,
  "de": 574,
  "sh</w>": 575,
  "par": 576,
  "dh": 577,
  "āre</w>": 578,
  "paḍā</w>": 579,
  "naz": 580,
  "chho": 581,
  "ḍī</w>": 582,
  "ġhaz": 583,
  "leñ</w>": 584,
  "gī": 585,
  "be": 586,
  "v": 587,
  "p": 588,
  "ār</w>": 589,
  "tujh</w>": 590,
  "bhu": 591,
  "lāyā</w>": 592,
  "din</w>": 593,
  "ḳhvāboñ</w>": 594,
  "gañ": 595,
  "vā": 596,
  "ne": 597,
  "jurm</w>": 598,
  "ai": 599,
  "chhupā": 600,
  "du": 601,
  "khā</w>": 602,
  "lo</w>": 603,
  "aap</w>": 604,
  "khā": 605,
  "muddatoñ</w>": 606,
  "tark-e-": 607,
  "royā</w>": 608,
  "qarz</w>": 609,
  "chu": 610,
  "kā": 611,
  "patā</w>": 612,
  "sake</w>": 613,
  "talā": 614,
  "fī</w>": 615,
  "shā.erī</w>": 616,
  "ma.alūm</w>": 617,
  "a": 618,
  "mā": 619,
  "nat</w>": 620,
  "lamha</w>": 621,
  "rahtā</w>": 622,
  "rahtī</w>": 623,
  "tumhāre</w>": 624,
  "paas</w>": 625,
  "aatā</w>": 626,
  "tanhā</w>": 627,
  "chāhe</w>": 628,
  "sach</w>": 629,
  "bo": 630,
  "l": 631,
  "ūñ</w>": 632,
  "baare</w>": 633,
  "muskurā": 634,
  "jhūtā</w>": 635,
  "gul-rañg</w>": 636,
  "hoñtoñ</w>": 637,
  "da": 638,
  "ha": 639,
  "pī</w>": 640,
  "kar</w>": 641,
  "pyāsā</w>": 642,
  "tujhe</w>": 643,
  "bāñhoñ</w>": 644,
  "bhar</w>": 645,
  "lene</w>": 646,
  "ḳhvāhish</w>": 647,
  "yuuñ</w>": 648,
  "ubhar": 649,
  "apnī</w>": 650,
  "rusvā</w>": 651,
  "hausla</w>": 652,
  "shik": 653,
  "jabīñ</w>": 654,
  "dīvāna</w>": 655,
  "bane</w>": 656,
  "sun</w>": 657,
  "liyā</w>": 658,
  "jagah</w>": 659,
  "pahl": 660,
  "e-": 661,
  "hal</w>": 662,
  "sunā.ī</w>": 663,
  "ehsān</w>": 664,
  "hasīnoñ</w>": 665,
  "uthā.e</w>": 666,
  "tumhīñ</w>": 667,
  "samajh</w>": 668,
  "ḳhudā</w>": 669,
  "kahā</w>": 670,
  "varna</w>": 671,
  "kahī</w>": 672,
  "itne</w>": 673,
  "dard-e-": 674,
  "mu": 675,
  "karne</w>": 676,
  "sambhāl</w>": 677,
  "had</w>": 678,
  "guzarne</w>": 679,
  "haqīqa": 680,
  "matlab</w>": 681,
  "farz</w>": 682,
  "aan</w>": 683,
  "tū": 684,
  "tte</w>": 685,
  "aqī": 686,
  "silsi": 687,
  "jaise</w>": 688,
  "bikharne</w>": 689,
  "chashm-e-": 690,
  "dhar": 691,
  "muhāl</w>": 692,
  "terā</w>": 693,
  "kamāl</w>": 694,
  "mehr-o-": 695,
  "ar": 696,
  "z-o-": 697,
  "kā.enāt</w>": 698,
  "ban</w>": 699,
  "it": 700,
  "sambhā": 701,
  "lā</w>": 702,
  "jā.egā</w>": 703,
  "lo": 704,
  "go</w>": 705,
  "dar": 706,
  "dillī</w>": 707,
  "ga.iiñ</w>": 708,
  "kū": 709,
  "choñ</w>": 710,
  "rau": 711,
  "eñ</w>": 712,
  "jhukā</w>": 713,
  "yaad</w>": 714,
  "dar</w>": 715,
  "dīvār</w>": 716,
  "saa.e</w>": 717,
  "ābgī": 718,
  "rā</w>": 719,
  "paa.e</w>": 720,
  "koh": 721,
  "s": 722,
  "āroñ</w>": 723,
  "havādis</w>": 724,
  "raah</w>": 725,
  "sañg-": 726,
  "re": 727,
  "zoñ</w>": 728,
  "ḳha": 729,
  "za": 730,
  "f-": 731,
  "kitne</w>": 732,
  "hi": 733,
  "ir": 734,
  "n</w>": 735,
  "laa.e</w>": 736,
  "hālāt</w>": 737,
  "vāste</w>": 738,
  "ghab": 739,
  "jānib</w>": 740,
  "dekhā</w>": 741,
  "sañ": 742,
  "vārā</w>": 743,
  "ārā</w>": 744,
  "chhū</w>": 745,
  "chauñk</w>": 746,
  "uthtā</w>": 747,
  "puk": 748,
  "palkoñ</w>": 749,
  "ashkoñ</w>": 750,
  "īr</w>": 751,
  "āñchal</w>": 752,
  "kin": 753,
  "ḳhalish</w>": 754,
  "de</w>": 755,
  "rah</w>": 756,
  "jā</w>": 757,
  "gavārā</w>": 758,
  "bhi": 759,
  "lākhoñ</w>": 760,
  "guz": 761,
  "azā": 762,
  "silsila</w>": 763,
  "rahā</w>": 764,
  "jiine</w>": 765,
  "guzar</w>": 766,
  "dīvāne</w>": 767,
  "saḳht</w>": 768,
  "marha": 769,
  "chalo</w>": 770,
  "jiitā</w>": 771,
  "aql</w>": 772,
  "haar</w>": 773,
  "sakī</w>": 774,
  "maze</w>": 775,
  "b": 776,
  "zaat</w>": 777,
  "gum</w>": 778,
  "sakā</w>": 779,
  "phir</w>": 780,
  "chheḍ</w>": 781,
  "lā-": 782,
  "u": 783,
  "thī</w>": 784,
  "diloñ</w>": 785,
  "mo.āmla</w>": 786,
  "mai-kashī</w>": 787,
  "aadat</w>": 788,
  "talḳh</w>": 789,
  "haqīqat</w>": 790,
  "fitna-e-": 791,
  "ju": 792,
  "shor": 793,
  "ish-e-": 794,
  "jazbāt</w>": 795,
  "baġhair</w>": 796,
  "qayāmat</w>": 797,
  "javānī</w>": 798,
  "qasam</w>": 799,
  "sharārat</w>": 800,
  "achchhā</w>": 801,
  "taqāzā</w>": 802,
  "ḳhayāl</w>": 803,
  "jamāl</w>": 804,
  "pal</w>": 805,
  "uth": 806,
  "uth</w>": 807,
  "jaa.eñ</w>": 808,
  "anjuman</w>": 809,
  "suunā</w>": 810,
  "ravish</w>": 811,
  "judā</w>": 812,
  "hamārī</w>": 813,
  "jhagḍā</w>": 814,
  "har-chand</w>": 815,
  "e'tibār</w>": 816,
  "dhoke</w>": 817,
  "bharosā</w>": 818,
  "lahja</w>": 819,
  "banā</w>": 820,
  "kareñ</w>": 821,
  "sāmne</w>": 822,
  "tamāshā</w>": 823,
  "in": 824,
  "aam</w>": 825,
  "ḳhitāb</w>": 826,
  "vaise</w>": 827,
  "ār": 828,
  "i": 829,
  "kat": 830,
  "pūchh</w>": 831,
  "rozgār</w>": 832,
  "ñt</w>": 833,
  "ka": 834,
  "ḍ": 835,
  "vā</w>": 836,
  "shaḳhs</w>": 837,
  "pareshā": 838,
  "n-o-": 839,
  "ba-": 840,
  "bhañvar</w>": 841,
  "ta": 842,
  "jā": 843,
  "hu": 844,
  "l</w>": 845,
  "kahe</w>": 846,
  "be-ḳhabar</w>": 847,
  "ḳhushī</w>": 848,
  "bara": 849,
  "t": 850,
  "jiinā</w>": 851,
  "nashāt-e-": 852,
  "sohbat-e-": 853,
  "rin": 854,
  "dāñ</w>": 855,
  "ġhanīmat</w>": 856,
  "āsho": 857,
  "b-o-": 858,
  "kise</w>": 859,
  "hashr</w>": 860,
  "hogā</w>": 861,
  "nd</w>": 862,
  "rau</w>": 863,
  "paañv</w>": 864,
  "ti": 865,
  "k</w>": 866,
  "sakeñ</w>": 867,
  "kh": 868,
  "ḍā</w>": 869,
  "shajar</w>": 870,
  "jahān-e-": 871,
  "nau</w>": 872,
  "kam": 873,
  "mal</w>": 874,
  "ñg": 875,
  "muḳhtasar</w>": 876,
  "diida</w>": 877,
  "husn</w>": 878,
  "bikhar": 879,
  "sañvar": 880,
  "raushnī</w>": 881,
  "tūfā": 882,
  "dariyā</w>": 883,
  "chāñd</w>": 884,
  "utartā</w>": 885,
  "rāste</w>": 886,
  "rahī</w>": 887,
  "baazū</w>": 888,
  "guzartā</w>": 889,
  "mit</w>": 890,
  "same": 891,
  "andh": 892,
  "ere</w>": 893,
  "sūraj</w>": 894,
  "siine</w>": 895,
  "sau</w>": 896,
  "cham": 897,
  "eñge</w>": 898,
  "banegī</w>": 899,
  "auqāt</w>": 900,
  "aa.eñ</w>": 901,
  "mileñge</w>": 902,
  "āḳhir</w>": 903,
  "taqrī": 904,
  "b-e-": 905,
  "mulāqāt</w>": 906,
  "nāva": 907,
  "k-e-": 908,
  "buuñd</w>": 909,
  "ārāt</w>": 910,
  "chāheñ</w>": 911,
  "saa": 912,
  "baḍ": 913,
  "hte</w>": 914,
  "baith</w>": 915,
  "soch": 916,
  "jism</w>": 917,
  "āvārgī</w>": 918,
  "mat</w>": 919,
  "kaho</w>": 920,
  "sakte</w>": 921,
  "aisī</w>": 922,
  "hat</w>": 923,
  "suno</w>": 924,
  "rā": 925,
  "g": 926,
  "nī</w>": 927,
  "dīvānoñ</w>": 928,
  "dīvāngī</w>": 929,
  "kat</w>": 930,
  "zanjī": 931,
  "reñ</w>": 932,
  "āzād</w>": 933,
  "tez</w>": 934,
  "uthte</w>": 935,
  "aate</w>": 936,
  "va.ade</w>": 937,
  "maujūd</w>": 938,
  "va.a": 939,
  "kamī</w>": 940,
  "chhi": 941,
  "phai": 942,
  "tīrgī</w>": 943,
  "hogī</w>": 944,
  "qātil</w>": 945,
  "dāmāñ</w>": 946,
  "kahte</w>": 947,
  "ḳhūn-e-": 948,
  "shahī": 949,
  "ilāj-e-": 950,
  "chāk-e-": 951,
  "pairāhan</w>": 952,
  "kāñtoñ</w>": 953,
  "garebāñ</w>": 954,
  "tarā": 955,
  "diye</w>": 956,
  "lafzoñ</w>": 957,
  "qaid</w>": 958,
  "leñge</w>": 959,
  "ajab</w>": 960,
  "andāz</w>": 961,
  "legā</w>": 962,
  "zindāñ</w>": 963,
  "daf": 964,
  "inhīñ</w>": 965,
  "saḍ": 966,
  "koñ</w>": 967,
  "mar</w>": 968,
  "insāñ</w>": 969,
  "lip": 970,
  "sho": 971,
  "tap": 972,
  "chāhtā</w>": 973,
  "tūfāñ</w>": 974,
  "jaam</w>": 975,
  "bhī": 976,
  "gī</w>": 977,
  "utar</w>": 978,
  "aa.iiñ</w>": 979,
  "sat": 980,
  "ā.egī</w>": 981,
  "yād-e-": 982,
  "yārāñ</w>": 983,
  "tahzīb</w>": 984,
  "kaise</w>": 985,
  "raas</w>": 986,
  "aa.egī</w>": 987,
  "ujaḍ</w>": 988,
  "shahr-e-": 989,
  "lāñ</w>": 990,
  "shaguf": 991,
  "ta</w>": 992,
  "tā": 993,
  "zgī</w>": 994,
  "ñgā</w>": 995,
  "mushkil</w>": 996,
  "kalī</w>": 997,
  "ḳhalva": 998,
  "t-": 999,
  "kade</w>": 1000,
  "sañv": 1001,
  "re</w>": 1002,
  "dhuup</w>": 1003,
  "baḳh": 1004,
  "shī</w>": 1005,
  "nd": 1006,
  "sabz</w>": 1007,
  "mai": 1008,
  "dānoñ</w>": 1009,
  "vus": 1010,
  ".ateñ</w>": 1011,
  "sh": 1012,
  "īñ</w>": 1013,
  "pig": 1014,
  "hal": 1015,
  "āb": 1016,
  "dari": 1017,
  "yā-": 1018,
  "dilī</w>": 1019,
  "nā-": 1020,
  "ravā</w>": 1021,
  "taq": 1022,
  "m</w>": 1023,
  "qaa.e": 1024,
  "aañsū</w>": 1025,
  "karishma</w>": 1026,
  "zamāne</w>": 1027,
  "ve": 1028,
  "ā-e-": 1029,
  "ḳhair</w>": 1030,
  "mumkin</w>": 1031,
  "kaam</w>": 1032,
  "divā": 1033,
  "ii": 1034,
  "likh": 1035,
  "vā.e</w>": 1036,
  "shā.irī</w>": 1037,
  "churā</w>": 1038,
  "hisse</w>": 1039,
  "ġhubār</w>": 1040,
  "kū-e-": 1041,
  "hayāt</w>": 1042,
  "kaa": 1043,
  "thoḍā</w>": 1044,
  "vaañ</w>": 1045,
  "guzār</w>": 1046,
  "qur": 1047,
  "jāñ</w>": 1048,
  "pu": 1049,
  "kār</w>": 1050,
  "khule</w>": 1051,
  "hoñ</w>": 1052,
  "fasl-e-bahār</w>": 1053,
  "aziiz</w>": 1054,
  "ḳhūn-e-dil</w>": 1055,
  "kāġhaz</w>": 1056,
  "qis": 1057,
  "ma": 1058,
  "vār</w>": 1059,
  "roz</w>": 1060,
  "muravvat</w>": 1061,
  "yaqī": 1062,
  "n-e-": 1063,
  "da-e-": 1064,
  "rāteñ</w>": 1065,
  "guzrī</w>": 1066,
  "sitāroñ</w>": 1067,
  "barā": 1068,
  "teñ</w>": 1069,
  "tasallī</w>": 1070,
  "detā</w>": 1071,
  "detī</w>": 1072,
  "bāteñ</w>": 1073,
  "shā.i": 1074,
  "ta-e-": 1075,
  "tahzī": 1076,
  "alam</w>": 1077,
  "shāyad</w>": 1078,
  "ġham-": 1079,
  "zada</w>": 1080,
  "kyuuñ</w>": 1081,
  "haal</w>": 1082,
  "kahnā</w>": 1083,
  "dil": 1084,
  "cha": 1085,
  "kartī</w>": 1086,
  "rahzan</w>": 1087,
  "lut": 1088,
  "dekhī</w>": 1089,
  "jī": 1090,
  "jaan</w>": 1091,
  "lete</w>": 1092,
  "pūchho</w>": 1093,
  "paḍ": 1094,
  "kitāboñ</w>": 1095,
  "tun": 1096,
  "d-": 1097,
  "havāoñ</w>": 1098,
  "bisā": 1099,
  "siina</w>": 1100,
  "naa": 1101,
  "f</w>": 1102,
  "kamar</w>": 1103,
  "sadiyoñ</w>": 1104,
  "kitnā</w>": 1105,
  "kath": 1106,
  "bi": 1107,
  "phū": 1108,
  "ñ": 1109,
  "kne</w>": 1110,
  "sochā</w>": 1111,
  "legī</w>": 1112,
  "baithā</w>": 1113,
  "lik": 1114,
  "zehn</w>": 1115,
  "pe": 1116,
  "patthar</w>": 1117,
  "bāñdh</w>": 1118,
  "pīchhe</w>": 1119,
  "ḳhvāb</w>": 1120,
  "ḳhvāb-e-": 1121,
  "phire</w>": 1122,
  "laut</w>": 1123,
  "ghar</w>": 1124,
  "ja": 1125,
  "lan</w>": 1126,
  "bhū": 1127,
  "da-": 1128,
  "shikan</w>": 1129,
  "chot</w>": 1130,
  "dab": 1131,
  "sana": 1132,
  "m-e-": 1133,
  "dāvā-e-": 1134,
  "itnī</w>": 1135,
  "rañ": 1136,
  "j": 1137,
  "-o-": 1138,
  "me": 1139,
  "han</w>": 1140,
  "ġham-e-ishq</w>": 1141,
  "ni": 1142,
  "bhā</w>": 1143,
  "āḳhirī</w>": 1144,
  "biit</w>": 1145,
  "ga.ī</w>": 1146,
  "batāo</w>": 1147,
  "ġhair</w>": 1148,
  "añdheroñ</w>": 1149,
  "nikal": 1150,
  ".a": 1151,
  "jalā": 1152,
  "basā": 1153,
  "bojh</w>": 1154,
  "akelā</w>": 1155,
  "kab</w>": 1156,
  "chalī</w>": 1157,
  "naaz</w>": 1158,
  "uthā": 1159,
  "um": 1160,
  "r-": 1161,
  "qatl</w>": 1162,
  "tumhārī</w>": 1163,
  "suu": 1164,
  "chaḍ": 1165,
  "hā": 1166,
  "der</w>": 1167,
  "jī</w>": 1168,
  "luuñ</w>": 1169,
  "thah": 1170,
  "ro</w>": 1171,
  "bālīñ</w>": 1172,
  "jaao</w>": 1173,
  "ufuq</w>": 1174,
  "agarche</w>": 1175,
  "paḍtā</w>": 1176,
  "sav": 1177,
  "erā</w>": 1178,
  "chehra</w>": 1179,
  "ste</w>": 1180,
  "sabhī</w>": 1181,
  "baa": 1182,
  "ḳhumār</w>": 1183,
  "dhū": 1184,
  "shu": 1185,
  "yāñ</w>": 1186,
  "paiham</w>": 1187,
  "falak</w>": 1188,
  "ret</w>": 1189,
  "ġhus": 1190,
  "l-e-": 1191,
  "sun": 1192,
  "ah": 1193,
  "bachā": 1194,
  "majbū": 1195,
  "nashsha-e-": 1196,
  "mai</w>": 1197,
  "pyaas</w>": 1198,
  "buj": 1199,
  "tishnagī</w>": 1200,
  "baḍhā</w>": 1201,
  "ḳharā": 1202,
  "jāt</w>": 1203,
  "mil</w>": 1204,
  "nīm-": 1205,
  "nigāhī</w>": 1206,
  "usī</w>": 1207,
  "husn-e-": 1208,
  "ri": 1209,
  "yāt</w>": 1210,
  "z-e-": 1211,
  "dīda-e-": 1212,
  "ḳhū": 1213,
  "bān-e-": 1214,
  "nisbat</w>": 1215,
  "rakhte</w>": 1216,
  "ḳhafā</w>": 1217,
  "haa.e</w>": 1218,
  "ko": 1219,
  "duuñ</w>": 1220,
  "mirā</w>": 1221,
  "chhīn</w>": 1222,
  "dhaḍ": 1223,
  "chalā</w>": 1224,
  "rizq</w>": 1225,
  "dene</w>": 1226,
  "vaalā</w>": 1227,
  "ro": 1228,
  "khaḍā</w>": 1229,
  "maañg</w>": 1230,
  "tadbīr</w>": 1231,
  "karnī</w>": 1232,
  "raaz</w>": 1233,
  "qadar</w>": 1234,
  "alag</w>": 1235,
  "ajiib</w>": 1236,
  "jise</w>": 1237,
  "sar": 1238,
  "o": 1239,
  "nasīb</w>": 1240,
  "dūd-e-": 1241,
  "zā": 1242,
  "bāhar</w>": 1243,
  "nikal</w>": 1244,
  "raqīb</w>": 1245,
  "dostī</w>": 1246,
  "marāsim</w>": 1247,
  "ḳhulū": 1248,
  "s</w>": 1249,
  "taa": 1250,
  "yār-e-": 1251,
  "hab": 1252,
  "īb</w>": 1253,
  "shīshe</w>": 1254,
  "bharī</w>": 1255,
  "aave</w>": 1256,
  "balā</w>": 1257,
  "dū": 1258,
  "nazar": 1259,
  "juuñ</w>": 1260,
  "pāñ": 1261,
  "v</w>": 1262,
  "nasīm-e-": 1263,
  "sa": 1264,
  "harī</w>": 1265,
  "zaḳhm</w>": 1266,
  "gah": 1267,
  "samjhe</w>": 1268,
  "chāra": 1269,
  "garī</w>": 1270,
  "jigar": 1271,
  "dā": 1272,
  "māñ": 1273,
  "dāb</w>": 1274,
  "ma-": 1275,
  "darī</w>": 1276,
  "shaj": 1277,
  "ar-e-": 1278,
  "māñge</w>": 1279,
  "raa": 1280,
  "kaisī</w>": 1281,
  "va": 1282,
  "lānā</w>": 1283,
  "āsān</w>": 1284,
  "baḍī</w>": 1285,
  "be-ḳhabarī</w>": 1286,
  "nig": 1287,
  "ārāñ</w>": 1288,
  "aañkh</w>": 1289,
  "sāhi": 1290,
  "bo</w>": 1291,
  "pahchān</w>": 1292,
  "khel</w>": 1293,
  "dī": 1294,
  "varī</w>": 1295,
  "jash": 1296,
  "jashn-e-": 1297,
  "faro": 1298,
  "zāñ</w>": 1299,
  "garm</w>": 1300,
  "bū": 1301,
  "ñd": 1302,
  "charāġhāñ</w>": 1303,
  "agar</w>": 1304,
  "davā</w>": 1305,
  "māñ</w>": 1306,
  "intihā</w>": 1307,
  "farā": 1308,
  "vāñ</w>": 1309,
  "āshiq</w>": 1310,
  "shāne</w>": 1311,
  "zulf-e-": 1312,
  "pareshāñ</w>": 1313,
  "bū-e-": 1314,
  "shāḳh-e-gul</w>": 1315,
  "lacha": 1316,
  "gulistāñ</w>": 1317,
  "bahāroñ</w>": 1318,
  "junūñ</w>": 1319,
  "t-e-": 1320,
  "biite</w>": 1321,
  "bī": 1322,
  "te": 1323,
  "ñge</w>": 1324,
  "badal</w>": 1325,
  "jā.egī</w>": 1326,
  "taqdī": 1327,
  "r-e-": 1328,
  "ash.ār</w>": 1329,
  "faqat</w>": 1330,
  "sunāne</w>": 1331,
  "thi": 1332,
  "mitā</w>": 1333,
  "kale": 1334,
  "je</w>": 1335,
  "lagāne</w>": 1336,
  "chiiz</w>": 1337,
  "hāne</w>": 1338,
  "ge</w>": 1339,
  "bh": 1340,
  "sajā": 1341,
  "dekhūñ</w>": 1342,
  "mandi": 1343,
  "dii": 1344,
  "ilm</w>": 1345,
  "saudā</w>": 1346,
  "ki": 1347,
  "lāne</w>": 1348,
  "lag": 1349,
  "rasm</w>": 1350,
  "tale</w>": 1351,
  "dabā</w>": 1352,
  "darī": 1353,
  "egī</w>": 1354,
  "khilte</w>": 1355,
  "nash": 1356,
  "she</w>": 1357,
  "jaa": 1358,
  "ḍe</w>": 1359,
  "gulā": 1360,
  "bī</w>": 1361,
  "ġhazal</w>": 1362,
  "fan</w>": 1363,
  "toḍ</w>": 1364,
  "dil-e-": 1365,
  "tabāh</w>": 1366,
  "mizāj</w>": 1367,
  "paayā</w>": 1368,
  "sharar</w>": 1369,
  "use</w>": 1370,
  "muaaf</w>": 1371,
  "tañg</w>": 1372,
  "phuul</w>": 1373,
  "ba.ad</w>": 1374,
  "chhoḍ</w>": 1375,
  "paḍtī</w>": 1376,
  "lā": 1377,
  "chi": 1378,
  "denā</w>": 1379,
  "sha": 1380,
  "n-": 1381,
  "chalte</w>": 1382,
  "ruk</w>": 1383,
  "kānoñ</w>": 1384,
  "chhoḍ": 1385,
  "chan": 1386,
  "chal</w>": 1387,
  "pur": 1388,
  "vā.ī</w>": 1389,
  "pat": 1390,
  "pheñk</w>": 1391,
  "dhā": 1392,
  "ga": 1393,
  "jalte</w>": 1394,
  "shā": 1395,
  "khu": 1396,
  "dā</w>": 1397,
  "pī": 1398,
  "tal</w>": 1399,
  "gul-": 1400,
  "man-": 1401,
  "bhed</w>": 1402,
  "batā.ūñ</w>": 1403,
  "kahūñ</w>": 1404,
  "sunñ": 1405,
  "ā</w>": 1406,
  "rakkhe</w>": 1407,
  "kas": 1408,
  "sal": 1409,
  "dhal": 1410,
  "khe</w>": 1411,
  "auroñ</w>": 1412,
  "kiye</w>": 1413,
  "sa</w>": 1414,
  "unvā": 1415,
  "no": 1416,
  "rū": 1417,
  "mānoñ</w>": 1418,
  "maanā</w>": 1419,
  "pairahan</w>": 1420,
  "karish": 1421,
  "ma-e-": 1422,
  "aks-e-": 1423,
  "aq": 1424,
  "ma.ā": 1425,
  "hik": 1426,
  "dīvā": 1427,
  "na-": 1428,
  "pan</w>": 1429,
  "mut": 1430,
  "rib</w>": 1431,
  "dīm</w>": 1432,
  "sāqiyā</w>": 1433,
  "khulā</w>": 1434,
  "rañg-o-bū</w>": 1435,
  "pahā": 1436,
  "ḍ</w>": 1437,
  "kohkan</w>": 1438,
  "uthtī</w>": 1439,
  "fazā</w>": 1440,
  "sadā</w>": 1441,
  "ā.e": 1442,
  "q</w>": 1443,
  "tar": 1444,
  "āsh": 1445,
  "le": 1446,
  "tili": 1447,
  "khol</w>": 1448,
  "band-e-qabā</w>": 1449,
  "aao</w>": 1450,
  "sham": 1451,
  "ujālā</w>": 1452,
  "niklā</w>": 1453,
  "nik": 1454,
  "yoñ</w>": 1455,
  "qadmoñ</w>": 1456,
  "ra": 1457,
  "nj": 1458,
  "ando": 1459,
  "h-o-": 1460,
  "muj": 1461,
  "sazā</w>": 1462,
  "chup</w>": 1463,
  "gulū</w>": 1464,
  "dast-e-": 1465,
  "daulat-e-": 1466,
  "nā": 1467,
  "yā": 1468,
  "kahiye</w>": 1469,
  "kho": 1470,
  "nigāheñ</w>": 1471,
  "mī": 1472,
  "pal": 1473,
  "keñ</w>": 1474,
  "aa": 1475,
  "āb-o-": 1476,
  "bāñ": 1477,
  "rī</w>": 1478,
  "naġhma</w>": 1479,
  "chī": 1480,
  "ḳh</w>": 1481,
  "sukūt-e-": 1482,
  "mun": 1483,
  "zauq-e-": 1484,
  "parastish</w>": 1485,
  "sanam</w>": 1486,
  "saañs</w>": 1487,
  "ru": 1488,
  "qabā</w>": 1489,
  "begāna</w>": 1490,
  "tavajjoh</w>": 1491,
  "taġhāful</w>": 1492,
  ".at</w>": 1493,
  "mas": 1494,
  "nū": 1495,
  "zāhid</w>": 1496,
  "gardūñ</w>": 1497,
  "rahne</w>": 1498,
  "do</w>": 1499,
  "ajal</w>": 1500,
  "haat</w>": 1501,
  "hasrat</w>": 1502,
  "ġhubār-e-": 1503,
  "dhūñd": 1504,
  "zinda</w>": 1505,
  "mad": 1506,
  "fū": 1507,
  "vahshat</w>": 1508,
  "avval</w>": 1509,
  "junū": 1510,
  "vaa.iz</w>": 1511,
  "burī</w>": 1512,
  "aariz</w>": 1513,
  "qar": 1514,
  "ī": 1515,
  "gulāb</w>": 1516,
  "ham-": 1517,
  "banda</w>": 1518,
  "zabān-e-": 1519,
  "shīrīñ</w>": 1520,
  "mam": 1521,
  "'": 1522,
  "hai": 1523,
  "'</w>": 1524,
  "marg-e-": 1525,
  "gāh</w>": 1526,
  "shādī</w>": 1527,
  "gū": 1528,
  "dhā</w>": 1529,
  "bayābāñ</w>": 1530,
  "baithe</w>": 1531,
  "hīñ</w>": 1532,
  "la-e-": 1533,
  "saaqī</w>": 1534,
  "koh</w>": 1535,
  "dau": 1536,
  "bahār-e-": 1537,
  "shabnam</w>": 1538,
  "gul-e-": 1539,
  "ḳhan": 1540,
  "chhup": 1541,
  "dāman</w>": 1542,
  "saikḍoñ</w>": 1543,
  "dāġh-e-": 1544,
  "gunah</w>": 1545,
  "rahmat</w>": 1546,
  "ghatā</w>": 1547,
  "huum</w>": 1548,
  "ā.īna</w>": 1549,
  "ñ-": 1550,
  "sii": 1551,
  "kh</w>": 1552,
  "dekhtā</w>": 1553,
  "jhu": 1554,
  "'nazm'</w>": 1555,
  "ḳhāma</w>": 1556,
  "ḳhat-e-": 1557,
  "himmat-e-": 1558,
  "dāna</w>": 1559,
  "rasta</w>": 1560,
  "sabza-e-": 1561,
  "marne</w>": 1562,
  "sharī": 1563,
  "hāl</w>": 1564,
  "sham-e-": 1565,
  "kushta</w>": 1566,
  "parvāna</w>": 1567,
  "aish</w>": 1568,
  "lab-e-": 1569,
  "paimāna</w>": 1570,
  "af": 1571,
  ".ī</w>": 1572,
  "khulī</w>": 1573,
  "zulfoñ</w>": 1574,
  "aks</w>": 1575,
  "shāna</w>": 1576,
  "tūl-e-": 1577,
  "amal</w>": 1578,
  "lagānā</w>": 1579,
  "bazm</w>": 1580,
  "jā.eñge</w>": 1581,
  "nā-tamām</w>": 1582,
  "afsāna</w>": 1583,
  "lab": 1584,
  "rez</w>": 1585,
  "jām-e-": 1586,
  "bharā</w>": 1587,
  "dahr</w>": 1588,
  "tho": 1589,
  "kar": 1590,
  "pah": 1591,
  "aanā</w>": 1592,
  "soñ</w>": 1593,
  "utrā</w>": 1594,
  "shīsha</w>": 1595,
  "kartā</w>": 1596,
  "raqs</w>": 1597,
  "riyā</w>": 1598,
  "nishānī</w>": 1599,
  "kufr</w>": 1600,
  "zunnār</w>": 1601,
  "sub.": 1602,
  "sad-": 1603,
  "dān-e-": 1604,
  "mai-kada</w>": 1605,
  "ḳhizr</w>": 1606,
  "muntazir</w>": 1607,
  "bastī</w>": 1608,
  "aa.": 1609,
  "vīrāna</w>": 1610,
  "zish-e-": 1611,
  "mastāna</w>": 1612,
  "mai-ḳhāna</w>": 1613,
  "vaa": 1614,
  "h": 1615,
  "m-o-": 1616,
  "umī": 1617,
  "dekh": 1618,
  "surā": 1619,
  "vidā.a</w>": 1620,
  "tauba</w>": 1621,
  "kyūñ": 1622,
  "ji": 1623,
  "y": 1624,
  "oge</w>": 1625,
  "mash": 1626,
  "rab": 1627,
  "kaheñ</w>": 1628,
  "fi": 1629,
  "gār</w>": 1630,
  "sabr</w>": 1631,
  "baaqī</w>": 1632,
  "taar</w>": 1633,
  "aamad</w>": 1634,
  "ḳhizāñ</w>": 1635,
  "vaa.e</w>": 1636,
  "but</w>": 1637,
  "fardā</w>": 1638,
  "intizār</w>": 1639,
  "aa.ina</w>": 1640,
  "hairāñ</w>": 1641,
  "ġhazab</w>": 1642,
  "hār</w>": 1643,
  "tah": 1644,
  "ī-": 1645,
  "dast</w>": 1646,
  "nisār</w>": 1647,
  "achchhī</w>": 1648,
  "idhar</w>": 1649,
  "iid</w>": 1650,
  "uñgliyāñ</w>": 1651,
  "musāfir</w>": 1652,
  "saaf</w>": 1653,
  "mū": 1654,
  "jalve</w>": 1655,
  "taab</w>": 1656,
  "bār-hā</w>": 1657,
  "arsh</w>": 1658,
  "zanjīr</w>": 1659,
  "htā</w>": 1660,
  "ġharaz</w>": 1661,
  "chāhiye</w>": 1662,
  "shāhi": 1663,
  "lāla-o-gul</w>": 1664,
  "laa.ī</w>": 1665,
  "sabā</w>": 1666,
  "lenā</w>": 1667,
  "tā-": 1668,
  "aane</w>": 1669,
  "do": 1670,
  "shī": 1671,
  "sub": 1672,
  "ū</w>": 1673,
  "mai-e-": 1674,
  "hir</w>": 1675,
  "tasavvur</w>": 1676,
  "ḳhāmoshī</w>": 1677,
  "sadā-e-": 1678,
  "bāsh</w>": 1679,
  "kahtā</w>": 1680,
  "'naz": 1681,
  "'-e-": 1682,
  "mubtalā</w>": 1683,
  "āh-e-": 1684,
  "be-asar</w>": 1685,
  "naḳh": 1686,
  "samar</w>": 1687,
  "jigar</w>": 1688,
  "ġha": 1689,
  "l-": 1690,
  "gīr</w>": 1691,
  "aarzū</w>": 1692,
  "murā": 1693,
  "yahāñ</w>": 1694,
  "jalva-gar</w>": 1695,
  "likkhā</w>": 1696,
  "dekhiye</w>": 1697,
  "vafā</w>": 1698,
  "nāz": 1699,
  "nīñ</w>": 1700,
  "qazā</w>": 1701,
  "saffāk</w>": 1702,
  "batā</w>": 1703,
  "chāra-": 1704,
  "gar</w>": 1705,
  "khe": 1706,
  "paḍ</w>": 1707,
  "jaanā</w>": 1708,
  "martā</w>": 1709,
  "zar": 1710,
  "ar</w>": 1711,
  "samjho</w>": 1712,
  "yād": 1713,
  "gār-e-": 1714,
  "rafta": 1715,
  "gān-e-": 1716,
  "qad": 1717,
  "dam</w>": 1718,
  "kār": 1719,
  "dāstān-e-": 1720,
  "rañgī": 1721,
  "bayā": 1722,
  "go": 1723,
  "sh-e-": 1724,
  "ib": 1725,
  "sune</w>": 1726,
  "fariyād</w>": 1727,
  "bulbul-e-": 1728,
  "navā-e-": 1729,
  "stā": 1730,
  "ā.īna-e-": 1731,
  "tasvīr</w>": 1732,
  "naale</w>": 1733,
  "fu": 1734,
  "ġhān-e-": 1735,
  "dhūñdhtā</w>": 1736,
  "mitā": 1737,
  "nishān-e-": 1738,
  "ibā": 1739,
  "dīd</w>": 1740,
  "shān-e-": 1741,
  "maj": 1742,
  "ma.a": 1743,
  "zamī": 1744,
  "ās": 1745,
  "mān-e-": 1746,
  "zabāñ</w>": 1747,
  "gardish</w>": 1748,
  "teġh-e-": 1749,
  "ur": 1750,
  "</w>": 1751,
  "fasā": 1752,
  "ya-": 1753,
  "yak": 1754,
  "tā-e-": 1755,
  "hotā</w>": 1756,
  "nauha": 1757,
  "ḳhvā": 1758,
  "tavāñ</w>": 1759,
  "tar-e-": 1760,
  "ḳhān": 1761,
  "dān</w>": 1762,
  "chaltā</w>": 1763,
  "tif": 1764,
  "zī": 1765,
  ".a</w>": 1766,
  "sajda</w>": 1767,
  "gar": 1768,
  "ku": 1769,
  "sarī</w>": 1770,
  "suḳhan</w>": 1771,
  "bach": 1772,
  "chū": 1773,
  "gul": 1774,
  "fir": 1775,
  "riz": 1776,
  "un": 1777,
  "ḳhāk-e-": 1778,
  "bur": 1779,
  "j</w>": 1780,
  "jam.a</w>": 1781,
  "tan": 1782,
  "āvār": 1783,
  "har": 1784,
  "z": 1785,
  "ah-": 1786,
  "gard</w>": 1787,
  "parī-": 1788,
  "ḳhāna</w>": 1789,
  "hañgāma</w>": 1790,
  "parī</w>": 1791,
  "ārī</w>": 1792,
  "dhuu": 1793,
  "bhare</w>": 1794,
  "var": 1795,
  "roz-e-": 1796,
  "siyah</w>": 1797,
  "jāniye</w>": 1798,
  "faroġh-e-": 1799,
  "sham.a</w>": 1800,
  "mai-kade</w>": 1801,
  "q-e-": 1802,
  "dhūñdte</w>": 1803,
  "jalva-e-": 1804,
  "zan-e-": 1805,
  "kr</w>": 1806,
  "kitāb</w>": 1807,
  "ra</w>": 1808,
  "mānind-e-": 1809,
  "bād</w>": 1810,
  "ḳhāna-": 1811,
  "dosh</w>": 1812,
  "sahrā</w>": 1813,
  "nh": 1814,
  "hazār</w>": 1815,
  "añgḍ": 1816,
  "ā.iyoñ</w>": 1817,
  "lte</w>": 1818,
  "be-iḳhtiyār</w>": 1819,
  "duu": 1820,
  "be</w>": 1821,
  "sa.i": 1822,
  "afsos</w>": 1823,
  "sāhil</w>": 1824,
  "chaar</w>": 1825,
  "nasī": 1826,
  "kahtī</w>": 1827,
  "bahr</w>": 1828,
  "aabrū</w>": 1829,
  "ahbāb</w>": 1830,
  "ḳhush</w>": 1831,
  "rañg": 1832,
  "yaar</w>": 1833,
  "khiñch": 1834,
  "mit": 1835,
  "nav": 1836,
  "qismat</w>": 1837,
  "pho": 1838,
  "zaa": 1839,
  "nū</w>": 1840,
  "maar</w>": 1841,
  "lnā</w>": 1842,
  "jām-e-mai</w>": 1843,
  "ish</w>": 1844,
  "ra.a": 1845,
  "sha-": 1846,
  "dār</w>": 1847,
  "mas.a": 1848,
  "jab": 1849,
  "r-o-": 1850,
  "iḳhtiyār</w>": 1851,
  "sam</w>": 1852,
  "al": 1853,
  "daam</w>": 1854,
  "vasl</w>": 1855,
  "chain</w>": 1856,
  "qarār</w>": 1857,
  "be-qarār</w>": 1858,
  "valvale</w>": 1859,
  "nihāñ</w>": 1860,
  "utthe</w>": 1861,
  "dhuāñ</w>": 1862,
  "bij": 1863,
  "liyāñ</w>": 1864,
  "baḍh</w>": 1865,
  "sāmān-e-": 1866,
  "rāhat</w>": 1867,
  "lā-makāñ</w>": 1868,
  "gard-e-": 1869,
  "āsmāñ</w>": 1870,
  "bād-e-": 1871,
  "murād</w>": 1872,
  "kash": 1873,
  "tī-e-": 1874,
  "gha": 1875,
  "tā.eñ</w>": 1876,
  "bād": 1877,
  "marg</w>": 1878,
  "mittī</w>": 1879,
  "paa.ī</w>": 1880,
  "dar-": 1881,
  "vaf": 1882,
  "zabt</w>": 1883,
  "betā": 1884,
  "-e-dil</w>": 1885,
  "saktī</w>": 1886,
  "gale</w>": 1887,
  "kiyāñ</w>": 1888,
  "gu": 1889,
  "inqa": 1890,
  "lāb-e-": 1891,
  "rañg-e-": 1892,
  "ālam</w>": 1893,
  "naġhme</w>": 1894,
  "nikle</w>": 1895,
  "min": 1896,
  "ār-e-": 1897,
  "fuġhāñ</w>": 1898,
  "abr</w>": 1899,
  "che</w>": 1900,
  "dah": 1901,
  "qāñ</w>": 1902,
  "jalā</w>": 1903,
  "khet</w>": 1904,
  "paanī</w>": 1905,
  "sāmāñ</w>": 1906,
  "hañ": 1907,
  "bijlī</w>": 1908,
  "dār-e-": 1909,
  "mātam</w>": 1910,
  "saarā</w>": 1911,
  "sht-e-": 1912,
  "āñ</w>": 1913,
  "āshiyāñ</w>": 1914,
  "tin": 1915,
  "bā.is-e-": 1916,
  "taskīñ</w>": 1917,
  "hasrat-e-": 1918,
  "farhād</w>": 1919,
  "iiñ</w>": 1920,
  "nah": 1921,
  "ḍoñ</w>": 1922,
  "ravāñ</w>": 1923,
  "shaidā</w>": 1924,
  "ba</w>": 1925,
  "akasr</w>": 1926,
  "butoñ</w>": 1927,
  "zulm</w>": 1928,
  "tuute</w>": 1929,
  "darte</w>": 1930,
  "harf-e-": 1931,
  "shauq</w>": 1932,
  "pahlū</w>": 1933,
  "yaañ</w>": 1934,
  "nazā": 1935,
  "aalam</w>": 1936,
  "to": 1937,
  "toḍā</w>": 1938,
  "kab": 1939,
  "ak</w>": 1940,
  "laḍ": 1941,
  "kha": 1942,
  "subu": 1943,
  "pā.e": 1944,
  "bār-e-": 1945,
  "girāñ</w>": 1946,
  "hoñ": 1947,
  "zabt-e-": 1948,
  "muñh</w>": 1949,
  "ande": 1950,
  "sha-e-": 1951,
  "li": 1952,
  "manzil-e-": 1953,
  "ltā</w>": 1954,
  "bu": 1955,
  "tan-e-": 1956,
  "paidā</w>": 1957,
  "maañ</w>": 1958,
  "niklī</w>": 1959,
  "tumhārā</w>": 1960,
  "tīr-e-": 1961,
  "āf": 1962,
  "tāb-e-": 1963,
  "sāya-e-": 1964,
  "pursish</w>": 1965,
  "jallād</w>": 1966,
  "karegā</w>": 1967,
  "baḳhshā</w>": 1968,
  "afshāñ</w>": 1969,
  "sādgī</w>": 1970,
  "chhu": 1971,
  "sayyād</w>": 1972,
  "zālim</w>": 1973,
  "soch</w>": 1974,
  "sa-e-": 1975,
  "hoñt</w>": 1976,
  "tār-e-": 1977,
  "uq</w>": 1978,
  "zo": 1979,
  "dād</w>": 1980,
  "rahegī</w>": 1981,
  "ḳhaak</w>": 1982,
  "barbād</w>": 1983,
  "yāqū": 1984,
  "qat": 1985,
  "ummī": 1986,
  "yūsuf</w>": 1987,
  "pūchhtā</w>": 1988,
  "she": 1989,
  "fta</w>": 1990,
  "ḳhatt-e-": 1991,
  "z</w>": 1992,
  "darkār</w>": 1993,
  "tahrīr</w>": 1994,
  "kunj-e-": 1995,
  "qafas</w>": 1996,
  "rihā.ī</w>": 1997,
  "misl-e-": 1998,
  "betāb</w>": 1999,
  "soz-e-": 2000,
  "taḍap</w>": 2001,
  "shaiḳh</w>": 2002,
  "rī": 2003,
  "saf": 2004,
  "sitam</w>": 2005,
  "ījād</w>": 2006,
  "az-": 2007,
  "bas-ki</w>": 2008,
  "nañg-e-": 2009,
  "mo'": 2010,
  "tari": 2011,
  "mazmūñ</w>": 2012,
  "bahisht</w>": 2013,
  "dozaḳh</w>": 2014,
  "nam": 2015,
  "rūd</w>": 2016,
  "hastī</w>": 2017,
  "guzrā</w>": 2018,
  "ravā": 2019,
  "ravī</w>": 2020,
  "d-o-": 2021,
  "kai": 2022,
  "f-e-": 2023,
  "be-ḳhudī</w>": 2024,
  "zaḳhm-e-jigar</w>": 2025,
  "yārā": 2026,
  "bazm-e-": 2027,
  "chhāñv</w>": 2028,
  "pichh": 2029,
  "uq": 2030,
  "po": 2031,
  "kashākash</w>": 2032,
  "ḳhanda-e-": 2033,
  "pinhāñ</w>": 2034,
  "chamak</w>": 2035,
  "ñ</w>": 2036,
  "shumār</w>": 2037,
  "imtiyāz</w>": 2038,
  "āgahī</w>": 2039,
  "huk": 2040,
  "jaisā</w>": 2041,
  "zad</w>": 2042,
  "ḳh": 2043,
  "raf": 2044,
  "ya</w>": 2045,
  "pas": 2046,
  "t-o-": 2047,
  "buland</w>": 2048,
  "sāñ</w>": 2049,
  "thokar</w>": 2050,
  "rāh-e-": 2051,
  "vajd</w>": 2052,
  "ġhash</w>": 2053,
  "asar</w>": 2054,
  "ta.": 2055,
  "ab": 2056,
  "nafas</w>": 2057,
  "dekhte</w>": 2058,
  "bāb</w>": 2059,
  "sail-e-": 2060,
  "fanā</w>": 2061,
  "bahā</w>": 2062,
  "aah</w>": 2063,
  "khīñch": 2064,
  "mahshar</w>": 2065,
  "fa": 2066,
  "dekhe</w>": 2067,
  "has": 2068,
  "rateñ</w>": 2069,
  "salā": 2070,
  "bulā</w>": 2071,
  "zil": 2072,
  "parastī</w>": 2073,
  "haa": 2074,
  "parda</w>": 2075,
  "habāb</w>": 2076,
  "dikhā</w>": 2077,
  "chh": 2078,
  "ā.īñ</w>": 2079,
  "likh</w>": 2080,
  "chukā</w>": 2081,
  "ban": 2082,
  "dgī</w>": 2083,
  "pashemāñ</w>": 2084,
  "jānte</w>": 2085,
  "degā</w>": 2086,
  "dil-lagī</w>": 2087,
  "kush": 2088,
  "javāb</w>": 2089,
  "me</w>": 2090,
  "qāsid</w>": 2091,
  "mazār</w>": 2092,
  "laayā</w>": 2093,
  "jāntā</w>": 2094,
  "hū": 2095,
  "qusūr</w>": 2096,
  "rañg-o-": 2097,
  "motī</w>": 2098,
  ".e</w>": 2099,
  "dur": 2100,
  "uḍā</w>": 2101,
  "gūñ</w>": 2102,
  "nikaltī</w>": 2103,
  "sharā": 2104,
  "chhal": 2105,
  "rut</w>": 2106,
  "bada": 2107,
  "ltī</w>": 2108,
  "chaltī</w>": 2109,
  "za-": 2110,
  "rafta</w>": 2111,
  "tabī.at</w>": 2112,
  "sambha": 2113,
  "nāseh</w>": 2114,
  "fasl</w>": 2115,
  "fas": 2116,
  "khul": 2117,
  "rag-e-": 2118,
  "har-": 2119,
  "hote</w>": 2120,
  "rak": 2121,
  "khī</w>": 2122,
  "ziist</w>": 2123,
  "sābit</w>": 2124,
  "chhū": 2125,
  "talvār</w>": 2126,
  "jahannam</w>": 2127,
  "aañ": 2128,
  "ch</w>": 2129,
  "mai-": 2130,
  "sharāb</w>": 2131,
  "ālū": 2132,
  "shai</w>": 2133,
  "ātish</w>": 2134,
  "jal": 2135,
  "dikh": 2136,
  "ilāhī</w>": 2137,
  "aafat</w>": 2138,
  "shab-e-furqat</w>": 2139,
  "ttī</w>": 2140,
  "tal": 2141,
  "nikā": 2142,
  "ulaj": 2143,
  "hne</w>": 2144,
  "bahal": 2145,
  "qa": 2146,
  "donoñ</w>": 2147,
  "barha": 2148,
  "yā-rab</w>": 2149,
  "sub.h-e-": 2150,
  "bujh</w>": 2151,
  "nishāñ</w>": 2152,
  "rāh-": 2153,
  "isī</w>": 2154,
  "dasht</w>": 2155,
  "uf": 2156,
  "kotā": 2157,
  "ph": 2158,
  "er": 2159,
  "nigah-e-nāz</w>": 2160,
  "khiñ": 2161,
  "tiir</w>": 2162,
  "kareñge</w>": 2163,
  "kūñ</w>": 2164,
  "taḍ": 2165,
  "gesū</w>": 2166,
  "bā</w>": 2167,
  "kaan</w>": 2168,
  "ñk</w>": 2169,
  "guhar</w>": 2170,
  "āñdhi": 2171,
  "ashk</w>": 2172,
  "sai": 2173,
  "lāb</w>": 2174,
  "ḳharābī</w>": 2175,
  "zoh": 2176,
  "ḳhurshīd</w>": 2177,
  "ḳhalvat</w>": 2178,
  "ūñ": 2179,
  "vaqt-e-": 2180,
  "be-parvā</w>": 2181,
  "shīsha-e-": 2182,
  "sahbā</w>": 2183,
  "ġhāfil</w>": 2184,
  "ho": 2185,
  "shyār</w>": 2186,
  "tim": 2187,
  "sāl-e-": 2188,
  "yak-": 2189,
  "nādāñ</w>": 2190,
  "daanā</w>": 2191,
  "kash-e-": 2192,
  "bāl-e-": 2193,
  "lak</w>": 2194,
  "nāla-e-": 2195,
  "pai": 2196,
  "mā</w>": 2197,
  "ta.ajjub</w>": 2198,
  "āb-e-": 2199,
  "talab</w>": 2200,
  "uz": 2201,
  "lat-": 2202,
  "īn-e-": 2203,
  "dāman-e-": 2204,
  "pesh</w>": 2205,
  "mohlat</w>": 2206,
  "pūchhiye</w>": 2207,
  "naqsh-e-pā</w>": 2208,
  "haq</w>": 2209,
  "diid</w>": 2210,
  "sīr</w>": 2211,
  "samjheñ</w>": 2212,
  "gosh</w>": 2213,
  "la-hā-e-": 2214,
  "hir": 2215,
  "shikva</w>": 2216,
  "karūñ</w>": 2217,
  "ḳhalq</w>": 2218,
  "ā.ina-": 2219,
  "ñg</w>": 2220,
  "hamesha</w>": 2221,
  "kuu": 2222,
  "maqām</w>": 2223,
  "ḳhi": 2224,
  "rah-e-": 2225,
  "qat</w>": 2226,
  "sañg-e-": 2227,
  "ḍte</w>": 2228,
  "aar": 2229,
  "qāfila</w>": 2230,
  "khīñch</w>": 2231,
  "shabāb</w>": 2232,
  "pi": 2233,
  "irī</w>": 2234,
  "fasāna</w>": 2235,
  "uḍ</w>": 2236,
  "ruḳh</w>": 2237,
  "qaa": 2238,
  "bū</w>": 2239,
  "kalām</w>": 2240,
  "kamāñ</w>": 2241,
  "bahr-e-": 2242,
  "ulj": 2243,
  "hā</w>": 2244,
  "maarā</w>": 2245,
  "mauj": 2246,
  "jaal</w>": 2247,
  "kām-e-": 2248,
  "dil-e-nā-": 2249,
  "fāz</w>": 2250,
  "janāb-e-": 2251,
  "nā-e-": 2252,
  "mohtasib</w>": 2253,
  "lāla-": 2254,
  "dahan</w>": 2255,
  "qu": 2256,
  "girā": 2257,
  "sañg</w>": 2258,
  "nuk": 2259,
  "samā": 2260,
  "nau-": 2261,
  "baj": 2262,
  "tara": 2263,
  "afsur": 2264,
  "ratoñ</w>": 2265,
  "rakkhā</w>": 2266,
  "bachā</w>": 2267,
  "s-o-": 2268,
  "jigar-": 2269,
  "fursat</w>": 2270,
  "vī</w>": 2271,
  "nāḳhu": 2272,
  "daalā</w>": 2273,
  "bhe": 2274,
  "sad": 2275,
  "ise</w>": 2276,
  "darā": 2277,
  "lu": 2278,
  "but-e-": 2279,
  "uthe</w>": 2280,
  "ta.a": 2281,
  "mul</w>": 2282,
  "shahīd-e-": 2283,
  "añg</w>": 2284,
  "hujūm-e-": 2285,
  "la.a": 2286,
  "phirī</w>": 2287,
  "teġh-": 2288,
  "zan</w>": 2289,
  "bismil</w>": 2290,
  "ran</w>": 2291,
  "banāyā</w>": 2292,
  "ā.īna-": 2293,
  "chhoḍā</w>": 2294,
  "andalī": 2295,
  "parvāz</w>": 2296,
  "gure": 2297,
  "sunā</w>": 2298,
  "rāh": 2299,
  "sarā": 2300,
  "vatan</w>": 2301,
  "ahl-e-dil</w>": 2302,
  "zāhir</w>": 2303,
  "barhaman</w>": 2304,
  "hād": 2305,
  "bashar</w>": 2306,
  "ūd</w>": 2307,
  "dariyā-e-": 2308,
  "umiid</w>": 2309,
  "bichhaḍ</w>": 2310,
  "gavā": 2311,
  "sabā": 2312,
  "nargis</w>": 2313,
  "man</w>": 2314,
  "asiir</w>": 2315,
  "ge": 2316,
  "suoñ</w>": 2317,
  "ḳhuub</w>": 2318,
  "h-e-": 2319,
  "abr-e-": 2320,
  "jū</w>": 2321,
  "zah": 2322,
  "maut</w>": 2323,
  "shifā</w>": 2324,
  "kafan</w>": 2325,
  "ma.": 2326,
  "mauj</w>": 2327,
  "sar-e-": 2328,
  "ġhurūr</w>": 2329,
  "jazb-e-": 2330,
  "juz</w>": 2331,
  "baha": 2332,
  "rakhā</w>": 2333,
  "lagā.e</w>": 2334,
  "thahar</w>": 2335,
  "va-e-": 2336,
  "nāz</w>": 2337,
  "bayāñ</w>": 2338,
  "vahm</w>": 2339,
  "tī": 2340,
  "ḳhu": 2341,
  "ba-e-": 2342,
  "kitāb-e-": 2343,
  "ham-nashīñ</w>": 2344,
  "l-o-": 2345,
  "dīñ</w>": 2346,
  "kahne</w>": 2347,
  "zikr</w>": 2348,
  "qissa</w>": 2349,
  "nashsha</w>": 2350,
  "kān</w>": 2351,
  "bach</w>": 2352,
  "nave": 2353,
  "sab": 2354,
  "tāb</w>": 2355,
  "barq</w>": 2356,
  "ur</w>": 2357,
  "fikr</w>": 2358,
  "aab</w>": 2359,
  "rāz-e-": 2360,
  "maza</w>": 2361,
  "añg": 2362,
  "bīñ</w>": 2363,
  "jahān</w>": 2364,
  "udhar</w>": 2365,
  "lagī</w>": 2366,
  "sad</w>": 2367,
  "jo": 2368,
  "di-e-": 2369,
  "abas</w>": 2370,
  "ehtiyāt</w>": 2371,
  "sambhal</w>": 2372,
  "ultī</w>": 2373,
  "bah": 2374,
  "rasā</w>": 2375,
  "muḍ</w>": 2376,
  "vaar</w>": 2377,
  "chhurī</w>": 2378,
  "nazzā": 2379,
  "ra-e-": 2380,
  "ruḳh": 2381,
  "raushan</w>": 2382,
  "ā.īne</w>": 2383,
  "zi": 2384,
  "rās": 2385,
  "pii": 2386,
  "vā-e-": 2387,
  "āsi": 2388,
  "bol</w>": 2389,
  "bole</w>": 2390,
  "gum": 2391,
  "zam": 2392,
  "sal</w>": 2393,
  "ġ": 2394,
  "zā</w>": 2395,
  "h-": 2396,
  "ḳhvāñ</w>": 2397,
  "mush": 2398,
  "marhabā</w>": 2399,
  "qadr</w>": 2400,
  "jins-e-": 2401,
  "kushī</w>": 2402,
  "dūb": 2403,
  "kāmī</w>": 2404,
  "dushman</w>": 2405,
  "shahā": 2406,
  "kūcha-e-": 2407,
  "bat": 2408,
  "hijr</w>": 2409,
  "vahāñ</w>": 2410,
  "vīrā": 2411,
  "na-e-": 2412,
  "ul-": 2413,
  "nāk</w>": 2414,
  "zāhi": 2415,
  "ay": 2416,
  "aġhyār</w>": 2417,
  "chhā</w>": 2418,
  "jhū": 2419,
  "kījiye</w>": 2420,
  "th": 2421,
  "tiyāñ</w>": 2422,
  "is": 2423,
  "rār</w>": 2424,
  "nāse": 2425,
  "bai": 2426,
  "vā.i": 2427,
  "laa": 2428,
  "surma</w>": 2429,
  "qas": 2430,
  "big": 2431,
  "bezār</w>": 2432,
  "mān": 2433,
  "adam</w>": 2434,
  "dostoñ</w>": 2435,
  "paar</w>": 2436,
  "nigāh</w>": 2437,
  "karam</w>": 2438,
  "shāḳh": 2439,
  ".il</w>": 2440,
  "qais</w>": 2441,
  "tur": 2442,
  "tai</w>": 2443,
  "pahuñch</w>": 2444,
  "havas</w>": 2445,
  "aa.i": 2446,
  "rashk</w>": 2447,
  "kashtī</w>": 2448,
  "yak</w>": 2449,
  "baam</w>": 2450,
  "rahm</w>": 2451,
  "chaal</w>": 2452,
  "kār-e-": 2453,
  "āsāñ</w>": 2454,
  "zamīn</w>": 2455,
  "mushki": 2456,
  "pasand</w>": 2457,
  "sta</w>": 2458,
  "dil-": 2459,
  "ḳhvāh</w>": 2460,
  "ve</w>": 2461,
  "ishāre</w>": 2462,
  "ā.eñ</w>": 2463,
  "tavā": 2464,
  "ka.abe</w>": 2465,
  "pīr-e-": 2466,
  "muġhāñ</w>": 2467,
  "bāġh-e-": 2468,
  "jannat</w>": 2469,
  "andāz-e-": 2470,
  "nigah</w>": 2471,
  "garāñ</w>": 2472,
  "mul": 2473,
  "milnā</w>": 2474,
  "thahrā</w>": 2475,
  "bat</w>": 2476,
  "tukḍe</w>": 2477,
  "chaak</w>": 2478,
  "tāñ</w>": 2479,
  "baaz</w>": 2480,
  "hone</w>": 2481,
  "jafā</w>": 2482,
  "bār": 2483,
  "var</w>": 2484,
  "bar</w>": 2485,
  "nikleñ</w>": 2486,
  "bhāg": 2487,
  "rahguzar</w>": 2488,
  "āḳhir": 2489,
  "azal</w>": 2490,
  "abad</w>": 2491,
  "jaur": 2492,
  "barg-e-": 2493,
  "zauq</w>": 2494,
  "shikva-e-": 2495,
  "ḳhanda</w>": 2496,
  "be-sabab</w>": 2497,
  "girya</w>": 2498,
  "faqīr</w>": 2499,
  "kul": 2500,
  "ah</w>": 2501,
  "haif</w>": 2502,
  "numā": 2503,
  "ḳharāb</w>": 2504,
  "he": 2505,
  "la-": 2506,
  "kashī</w>": 2507,
  "tir": 2508,
  "das": 2509,
  "ḳhus": 2510,
  "qi": 2511,
  "teġh</w>": 2512,
  "shaan</w>": 2513,
  "shtar</w>": 2514,
  "atā</w>": 2515,
  "lutf</w>": 2516,
  "ḳhī</w>": 2517,
  "kaj-": 2518,
  "malāl</w>": 2519,
  "māni": 2520,
  "jhuut</w>": 2521,
  "gila</w>": 2522,
  "nāz-e-": 2523,
  "isti": 2524,
  "sāmān</w>": 2525,
  "insān</w>": 2526,
  "rasā.ī</w>": 2527,
  "kyūñkar</w>": 2528,
  "pūch": 2529,
  "am": 2530,
  "naf": 2531,
  "mutthī</w>": 2532,
  "zar</w>": 2533,
  "zu": 2534,
  "yā.ī</w>": 2535,
  "dartā</w>": 2536,
  "bande</w>": 2537,
  "ijāzat</w>": 2538,
  "bhaḍ": 2539,
  "ham": 2540,
  "voñ</w>": 2541,
  "daa": 2542,
  "pher</w>": 2543,
  "sañg-dil</w>": 2544,
  "andesh</w>": 2545,
  "jaañ</w>": 2546,
  "nadā": 2547,
  "hamdam</w>": 2548,
  "ham-zabāñ</w>": 2549,
  "dikhā.e</w>": 2550,
  "ravānī</w>": 2551,
  "tau": 2552,
  "umr-e-": 2553,
  "hilā": 2554,
  "nā-tavā": 2555,
  "sulai": 2556,
  "stāñ</w>": 2557,
  "dam-e-": 2558,
  "navā": 2559,
  "batā": 2560,
  "so.e</w>": 2561,
  "jaage</w>": 2562,
  "sir": 2563,
  "kah": 2564,
  "paḍī</w>": 2565,
  "sm-e-": 2566,
  "zār</w>": 2567,
  "phe": 2568,
  "ñg-e-": 2569,
  "be-qarārī</w>": 2570,
  "g-e-": 2571,
  "uḍ": 2572,
  "tha": 2573,
  "manzi": 2574,
  "lag</w>": 2575,
  "pahuñchā</w>": 2576,
  "pin": 2577,
  "ḍi": 2578,
  "rāh</w>": 2579,
  "bastiyāñ</w>": 2580,
  "thiiñ</w>": 2581,
  "niyāñ</w>": 2582,
  "tne</w>": 2583,
  "diyāñ</w>": 2584,
  "namī</w>": 2585,
  "laboñ</w>": 2586,
  "piite</w>": 2587,
  "chhe": 2588,
  "maat</w>": 2589,
  "afsāne</w>": 2590,
  "pahchāne</w>": 2591,
  "qāfile</w>": 2592,
  "vaalo</w>": 2593,
  "junūn-e-": 2594,
  "but-": 2595,
  "ḳhāne</w>": 2596,
  "pahar</w>": 2597,
  "tishna-": 2598,
  "kām</w>": 2599,
  "yāroñ</w>": 2600,
  "paimāne</w>": 2601,
  "salām</w>": 2602,
  "fī'</w>": 2603,
  "sañg": 2604,
  "sār</w>": 2605,
  "masī": 2606,
  "chhup</w>": 2607,
  "miltā</w>": 2608,
  "na.e</w>": 2609,
  "chehroñ</w>": 2610,
  "jañgal</w>": 2611,
  "dād-e-": 2612,
  "milī</w>": 2613,
  "pachh": 2614,
  "ā.iyegā</w>": 2615,
  "hañgā": 2616,
  "jaag</w>": 2617,
  "tan</w>": 2618,
  "ġhurbat</w>": 2619,
  "ndī</w>": 2620,
  "qadr-e-": 2621,
  "ḳhat": 2622,
  "dār": 2623,
  "san</w>": 2624,
  "savāl</w>": 2625,
  "ḳhvāhishoñ</w>": 2626,
  "th</w>": 2627,
  "ā.ī</w>": 2628,
  "bech</w>": 2629,
  "armān</w>": 2630,
  "sap": 2631,
  "mo": 2632,
  "bachpan</w>": 2633,
  "dīvār": 2634,
  "mehr": 2635,
  "bān</w>": 2636,
  "havā.eñ</w>": 2637,
  "lailā</w>": 2638,
  "nam</w>": 2639,
  "seh": 2640,
  "jitnā</w>": 2641,
  "ḳheme</w>": 2642,
  "pyāse</w>": 2643,
  "rāt</w>": 2644,
  "eñgī</w>": 2645,
  "masji": 2646,
  "ñgī</w>": 2647,
  "nāzuk</w>": 2648,
  "khiḍ": 2649,
  "dafn</w>": 2650,
  "nī": 2651,
  "harī": 2652,
  "m-e-nāz</w>": 2653,
  "māñg": 2654,
  "shor</w>": 2655,
  "parin": 2656,
  "peḍ</w>": 2657,
  "mālūm</w>": 2658,
  "nī-e-": 2659,
  "hañs": 2660,
  "pan": 2661,
  "ghabrā</w>": 2662,
  "uḍe</w>": 2663,
  "sarāb</w>": 2664,
  "samundar</w>": 2665,
  "javāñ</w>": 2666,
  "gi": 2667,
  "javā": 2668,
  "hañsne</w>": 2669,
  "sukūn</w>": 2670,
  "rone</w>": 2671,
  "dūsrā</w>": 2672,
  "ja</w>": 2673,
  "fikr-e-": 2674,
  "nashe": 2675,
  "tishna-labī</w>": 2676,
  "ār-o-": 2677,
  "ḳhas</w>": 2678,
  "rāsta</w>": 2679,
  "buzur": 2680,
  "goñ</w>": 2681,
  "naqsh-e-qadam</w>": 2682,
  "maz.hab</w>": 2683,
  "ḳhud-kushī</w>": 2684,
  "sikhā</w>": 2685,
  "sheñ</w>": 2686,
  "īñ": 2687,
  "hasīn</w>": 2688,
  "ḳhatā</w>": 2689,
  "zarūr</w>": 2690,
  "dhuul</w>": 2691,
  "rahnumā</w>": 2692,
  "raq": 2693,
  "s-e-": 2694,
  "kaash</w>": 2695,
  "ik": 2696,
  "kī": 2697,
  "fitne</w>": 2698,
  "pūchhā</w>": 2699,
  "salīqa</w>": 2700,
  "sahārā</w>": 2701,
  "guzre</w>": 2702,
  "sitāre</w>": 2703,
  "zer-e-": 2704,
  "paiġhām</w>": 2705,
  "ḳhanjar</w>": 2706,
  "musku": 2707,
  "bādal</w>": 2708,
  "añdhere</w>": 2709,
  "adab</w>": 2710,
  "hā.e</w>": 2711,
  "mudda": 2712,
  "chhupā.e</w>": 2713,
  "garmī-e-": 2714,
  "shauq-e-": 2715,
  "dekho</w>": 2716,
  "khile</w>": 2717,
  "ulfat</w>": 2718,
  "dekhne</w>": 2719,
  "gulzār</w>": 2720,
  "dil-e-pur-": 2721,
  "ḳhūñ</w>": 2722,
  "jha": 2723,
  "mak": 2724,
  "'faiz'</w>": 2725,
  "gi-e-": 2726,
  "shukr</w>": 2727,
  "jānāñ</w>": 2728,
  "dha": 2729,
  "maqtal</w>": 2730,
  "salāmat</w>": 2731,
  "jaanī</w>": 2732,
  "baazī</w>": 2733,
  "kaisā</w>": 2734,
  "jiit</w>": 2735,
  "are</w>": 2736,
  "shām-e-": 2737,
  "firāq</w>": 2738,
  "bahal</w>": 2739,
  "dhal</w>": 2740,
  "uthī</w>": 2741,
  "jagā</w>": 2742,
  "machal</w>": 2743,
  "ham-safar</w>": 2744,
  "sāhab</w>": 2745,
  "rasm-o-": 2746,
  "chashm</w>": 2747,
  "chaah</w>": 2748,
  "ijz</w>": 2749,
  "kāfir</w>": 2750,
  "mohtasi": 2751,
  "bāda-": 2752,
  "kam-": 2753,
  "razā</w>": 2754,
  "ḳhū</w>": 2755,
  "sitamgar</w>": 2756,
  "dād-": 2757,
  "daad</w>": 2758,
  "ḳhai": 2759,
  "phirtī</w>": 2760,
  "ziyāñ</w>": 2761,
  "tash": 2762,
  "vī": 2763,
  "kiije</w>": 2764,
  "rah-": 2765,
  "adū</w>": 2766,
  "mo.a": 2767,
  "badlā</w>": 2768,
  "rāz</w>": 2769,
  "ruḳh-e-": 2770,
  "sur": 2771,
  "ḳhī-e-": 2772,
  "piye</w>": 2773,
  "āġhāz</w>": 2774,
  "i</w>": 2775,
  "badlī</w>": 2776,
  "saaz</w>": 2777,
  "takallu": 2778,
  "ināyat</w>": 2779,
  "jāz</w>": 2780,
  "baham</w>": 2781,
  "sāġhar</w>": 2782,
  "baada</w>": 2783,
  "udaas</w>": 2784,
  "phirā</w>": 2785,
  "raahī</w>": 2786,
  "saada</w>": 2787,
  "utth": 2788,
  "irāda</w>": 2789,
  "rah-o-": 2790,
  "rind</w>": 2791,
  "sohbat</w>": 2792,
  "farq</w>": 2793,
  "minnat-e-": 2794,
  "ranji": 2795,
  "andā": 2796,
  "za-e-": 2797,
  "tabassu": 2798,
  "dost</w>": 2799,
  "munta": 2800,
  "nafrat</w>": 2801,
  "ustu": 2802,
  "raheñ</w>": 2803,
  "vafā-": 2804,
  "shi.ār</w>": 2805,
  "āshi": 2806,
  "yāna</w>": 2807,
  "lūk</w>": 2808,
  "qah": 2809,
  "sah": 2810,
  "ḳhushā</w>": 2811,
  "mudda.ī</w>": 2812,
  "hī": 2813,
  "fā": 2814,
  "dos": 2815,
  "talāsh</w>": 2816,
  "jitnī</w>": 2817,
  "hazrat-e-": 2818,
  "guftugū</w>": 2819,
  "kū-e-yār</w>": 2820,
  "saare</w>": 2821,
  "fasāne</w>": 2822,
  "gavār</w>": 2823,
  "rat-e-": 2824,
  "chīñ</w>": 2825,
  "bahāne</w>": 2826,
  "hadīs-e-": 2827,
  "unvāñ</w>": 2828,
  "mahram</w>": 2829,
  "ġhur": 2830,
  "zikr-e-": 2831,
  "baḳhi": 2832,
  "dar-e-": 2833,
  "moh": 2834,
  "utar": 2835,
  "guloñ</w>": 2836,
  "gulshan</w>": 2837,
  "kul</w>": 2838,
  "k-": 2839,
  "ġharīb</w>": 2840,
  "ā.eñge</w>": 2841,
  "ġham-gu": 2842,
  "hijrāñ</w>": 2843,
  "zū": 2844,
  "girah</w>": 2845,
  "chā</w>": 2846,
  "sū-e-": 2847,
  "harīf-e-": 2848,
  "rā.egāñ</w>": 2849,
  "honā</w>": 2850,
  "thahrī</w>": 2851,
  "rām</w>": 2852,
  "harām</w>": 2853,
  "hat-e-": 2854,
  "phirtā</w>": 2855,
  "gurezāñ</w>": 2856,
  "butāñ</w>": 2857,
  "āri": 2858,
  "nigah-e-": 2859,
  "ghaḍī</w>": 2860,
  "bikh": 2861,
  "kaf-e-": 2862,
  "bulbul</w>": 2863,
  "kāfir": 2864,
  "namāz</w>": 2865,
  "rah": 2866,
  "niyāz</w>": 2867,
  "bekasī</w>": 2868,
  "sāz</w>": 2869,
  "jāñ-": 2870,
  "navāz</w>": 2871,
  "jaur</w>": 2872,
  "sūd</w>": 2873,
  "if": 2874,
  "shā-e-": 2875,
  "qudrat</w>": 2876,
  "dard-e-dil</w>": 2877,
  "ḳhi-e-": 2878,
  "z-": 2879,
  "josh-e-": 2880,
  "lne</w>": 2881,
  "lut</w>": 2882,
  "matā-e-": 2883,
  "ārzū</w>": 2884,
  "kash</w>": 2885,
  "reza</w>": 2886,
  "gañvā</w>": 2887,
  "dāġh": 2888,
  "lutā</w>": 2889,
  "saf-e-": 2890,
  "dush": 2891,
  "man": 2892,
  "qāti": 2893,
  "ġhurūr-e-": 2894,
  "pas-e-": 2895,
  "bhulā</w>": 2896,
  "harf</w>": 2897,
  "uzr</w>": 2898,
  "guf": 2899,
  "likhā</w>": 2900,
  "paḍh</w>": 2901,
  "koh-e-": 2902,
  "bhūle</w>": 2903,
  "bichh": 2904,
  "kaabe</w>": 2905,
  "taare</w>": 2906,
  "rān-e-": 2907,
  "hamīñ</w>": 2908,
  "uthāne</w>": 2909,
  "dimāġh</w>": 2910,
  "mā.i": 2911,
  "-ba-": 2912,
  "naqsh-e-": 2913,
  "zī</w>": 2914,
  "āzmā.ish</w>": 2915,
  "bateñ</w>": 2916,
  "fās": 2917,
  "visāl</w>": 2918,
  "nashāt</w>": 2919,
  "aish-e-": 2920,
  "subuk-": 2921,
  "īq</w>": 2922,
  "ilti": 2923,
  "mashq-e-": 2924,
  "m-": 2925,
  "gilā</w>": 2926,
  "ḳhatm</w>": 2927,
  "hij": 2928,
  "mazā</w>": 2929,
  "mau": 2930,
  "j-": 2931,
  "paiġhā": 2932,
  "rū-ba-rū</w>": 2933,
  "badalne</w>": 2934,
  "khultā</w>": 2935,
  "khilā</w>": 2936,
  "ushshāq</w>": 2937,
  "mahfi": 2938,
  "vat-e-": 2939,
  "maq": 2940,
  "daal</w>": 2941,
  "gardan</w>": 2942,
  "daar</w>": 2943,
  "aas</w>": 2944,
  "ā.egā</w>": 2945,
  "mehrbāñ</w>": 2946,
  "masrū": 2947,
  "jau": 2948,
  "bāzār-e-": 2949,
  "zīst</w>": 2950,
  "jidhar</w>": 2951,
  "shikāyat</w>": 2952,
  "raqam</w>": 2953,
  "sabab</w>": 2954,
  "ūr</w>": 2955,
  "jāg": 2956,
  "sitā": 2957,
  "muqābil</w>": 2958,
  "ḳh-": 2959,
  "rū</w>": 2960,
  "anjum</w>": 2961,
  "baras</w>": 2962,
  "baab</w>": 2963,
  "baaġh</w>": 2964,
  "ujḍe</w>": 2965,
  "buu": 2966,
  "mansū": 2967,
  "r'</w>": 2968,
  "mur": 2969,
  "mh": 2970,
  "nāshād</w>": 2971,
  "yūsu": 2972,
  ".āñ</w>": 2973,
  "mis": 2974,
  "ābād</w>": 2975,
  "ze": 2976,
  "bā.ī</w>": 2977,
  "rav": 2978,
  "shīrīñ-": 2979,
  "han": 2980,
  "nās": 2981,
  "garmi-e-": 2982,
  "anjuman-e-": 2983,
  "tazki": 2984,
  "paira": 2985,
  "ārā.ī</w>": 2986,
  "nā.ī</w>": 2987,
  "hā-e-": 2988,
  "dagāñ</w>": 2989,
  "va.ada</w>": 2990,
  "masīhā.ī</w>": 2991,
  "rusvā.ī</w>": 2992,
  "vīrāñ</w>": 2993,
  "ruuth</w>": 2994,
  "fursat-e-": 2995,
  "gunāh</w>": 2996,
  "di": 2997,
  "fareb</w>": 2998,
  "ad": 2999,
  "arz-e-": 3000,
  "yateñ</w>": 3001,
  "shikā": 3002,
  "ahd</w>": 3003,
  "libās</w>": 3004,
  "siyāhī</w>": 3005,
  "jinheñ</w>": 3006,
  "jurm-e-": 3007,
  "gunāh": 3008,
  "āzmā": 3009,
  "tapa": 3010,
  "nigāhoñ</w>": 3011,
  "mastī</w>": 3012,
  "rāne</w>": 3013,
  "thikāne</w>": 3014,
  "nām</w>": 3015,
  "ulfat-e-": 3016,
  "malāmat</w>": 3017,
  "shaad</w>": 3018,
  "nā-umī": 3019,
  "shaam</w>": 3020,
  "gardish-e-": 3021,
  "taqdīr</w>": 3022,
  "gardish-e-ayyām</w>": 3023,
  "sāl</w>": 3024,
  "bām</w>": 3025,
  "ibtidā</w>": 3026,
  "chāra</w>": 3027,
  "rū-e-": 3028,
  "ya": 3029,
  "dā-e-": 3030,
  "qayā": 3031,
  "mateñ</w>": 3032,
  "guzar": 3033,
  "sunī</w>": 3034,
  "gosha-e-": 3035,
  "fasl-e-gul</w>": 3036,
  "navā</w>": 3037,
  "niyā": 3038,
  "qābi": 3039,
  "jañg</w>": 3040,
  "masīhā</w>": 3041,
  "ām</w>": 3042,
  "shai": 3043,
  "ḳh-e-": 3044,
  "namā": 3045,
  "zū</w>": 3046,
  "bāda": 3047,
  "v-": 3048,
  "hū</w>": 3049,
  "vāda-e-": 3050,
  "āshnā</w>": 3051,
  "ā.iyāñ</w>": 3052,
  "tab": 3053,
  "thahre</w>": 3054,
  "huiiñ</w>": 3055,
  "jag": 3056,
  "sāda-": 3057,
  "ḳhud": 3058,
  "f-o-": 3059,
  "sikh": 3060,
  "ahvāl</w>": 3061,
  "bhuul</w>": 3062,
  "mausam-e-gul</w>": 3063,
  "hā.ī</w>": 3064,
  "bii": 3065,
  "ummīd</w>": 3066,
  "ahd-e-vafā</w>": 3067,
  "tark-e-mohabbat</w>": 3068,
  "shāhī</w>": 3069,
  "darbāñ</w>": 3070,
  "qalam</w>": 3071,
  "lashkar</w>": 3072,
  "nuur</w>": 3073,
  "aḳh": 3074,
  "shāñ</w>": 3075,
  "ḳhāna-e-": 3076,
  "jam</w>": 3077,
  "halqa</w>": 3078,
  "raho</w>": 3079,
  "vafā": 3080,
  "digar</w>": 3081,
  "nigāh-e-": 3082,
  "be-hijāb</w>": 3083,
  "sukū": 3084,
  "qal": 3085,
  "vas": 3086,
  "ḳhayāl-e-": 3087,
  "jazā</w>": 3088,
  "ḳhār-e-": 3089,
  "vaq": 3090,
  "mizāj-e-": 3091,
  "bād-e-sabā</w>": 3092,
  "q-o-": 3093,
  "safā</w>": 3094,
  "muz": 3095,
  "sukūñ</w>": 3096,
  "chuke</w>": 3097,
  "nis": 3098,
  "imtihā": 3099,
  "taras</w>": 3100,
  "dekheñ</w>": 3101,
  "zarūrat</w>": 3102,
  "sarf-e-": 3103,
  "ḳhudā": 3104,
  "tamannā-e-": 3105,
  "pha": 3106,
  "ḳhirā": 3107,
  "gadā</w>": 3108,
  "karda</w>": 3109,
  "nafa": 3110,
  "sitāñ</w>": 3111,
  "rañgīñ</w>": 3112,
  "mai-ḳhāne</w>": 3113,
  ".eñ</w>": 3114,
  "dilbarī</w>": 3115,
  "iq": 3116,
  "rār-e-": 3117,
  "dinoñ</w>": 3118,
  "faiz</w>": 3119,
  "taqāzā-e-": 3120,
  "py": 3121,
  "begāne</w>": 3122,
  "gaah</w>": 3123,
  "htī</w>": 3124,
  "jhil": 3125,
  "zanjīr-e-": 3126,
  "satā": 3127,
  "sharh-e-": 3128,
  "qadah</w>": 3129,
  "fāñ</w>": 3130,
  "dil-o-jāñ</w>": 3131,
  "vīrānī</w>": 3132,
  "husn-o-": 3133,
  "ḳhūbī</w>": 3134,
  "ul": 3135,
  "jāved</w>": 3136,
  "hālat</w>": 3137,
  "nāb</w>": 3138,
  "sit": 3139,
  "azaab</w>": 3140,
  "mīnā</w>": 3141,
  "māh": 3142,
  "sāqī</w>": 3143,
  "naqāb</w>": 3144,
  "dārī</w>": 3145,
  "dar-o-": 3146,
  "ḳhāmushī</w>": 3147,
  "gūñ": 3148,
  "goyā</w>": 3149,
  "sar-ba-sar</w>": 3150,
  "pahuñche</w>": 3151,
  "kāmyāb</w>": 3152,
  "soh": 3153,
  "fur": 3154,
  "maan</w>": 3155,
  "rahegā</w>": 3156,
  "adā": 3157,
  "murav": 3158,
  "lījiye</w>": 3159,
  "manzar</w>": 3160,
  "jāneñ</w>": 3161,
  "giraftār-e-": 3162,
  "dam-": 3163,
  "ran": 3164,
  "tuk</w>": 3165,
  "sū</w>": 3166,
  "taslīm</w>": 3167,
  "said-e-": 3168,
  "gan</w>": 3169,
  "teġh": 3170,
  "kaf</w>": 3171,
  "dīvāroñ</w>": 3172,
  "mār": 3173,
  "phir": 3174,
  "kabhū</w>": 3175,
  "kaifi": 3176,
  "jur": 3177,
  "dhar</w>": 3178,
  "ā.a</w>": 3179,
  "ḳhvār</w>": 3180,
  "az": 3181,
  "jum": 3182,
  "aib</w>": 3183,
  "zin": 3184,
  "iyo</w>": 3185,
  "'mīr'</w>": 3186,
  "dasht-e-": 3187,
  "khil": 3188,
  "qa</w>": 3189,
  "hijā": 3190,
  "jale</w>": 3191,
  "makāñ</w>": 3192,
  "naala</w>": 3193,
  "shoḳh</w>": 3194,
  "shola-e-": 3195,
  "baith": 3196,
  "āstāñ</w>": 3197,
  "bhārī</w>": 3198,
  "shānī</w>": 3199,
  "dilbar</w>": 3200,
  "nihāyat</w>": 3201,
  "lī": 3202,
  "dan-e-": 3203,
  "rahūñ</w>": 3204,
  "mast-e-": 3205,
  "hosh</w>": 3206,
  "ra-": 3207,
  "chashm-e-tar</w>": 3208,
  "nibā": 3209,
  "as": 3210,
  "gir</w>": 3211,
  "samj": 3212,
  "baad</w>": 3213,
  "ḳhez</w>": 3214,
  "bulbu": 3215,
  "ma.ar": 3216,
  "shor-e-": 3217,
  "musht-e-": 3218,
  "aj": 3219,
  "bah</w>": 3220,
  "gudāz</w>": 3221,
  "st</w>": 3222,
  "shikasta</w>": 3223,
  "taur</w>": 3224,
  "jhalak</w>": 3225,
  "maah</w>": 3226,
  "āb</w>": 3227,
  "ḳhta</w>": 3228,
  "ātish-e-": 3229,
  "taklīf</w>": 3230,
  "khīñchī</w>": 3231,
  "āzār</w>": 3232,
  "ḳhat</w>": 3233,
  "ḳharīdār</w>": 3234,
  "majnūñ</w>": 3235,
  "lutf-e-": 3236,
  "giraftār</w>": 3237,
  "do-chār</w>": 3238,
  "mub": 3239,
  "vabā": 3240,
  "nā-chār</w>": 3241,
  "banī</w>": 3242,
  "pahlī</w>": 3243,
  "judā.ī</w>": 3244,
  "saa.at</w>": 3245,
  "garmī</w>": 3246,
  "maanī</w>": 3247,
  "ro.e</w>": 3248,
  "ruḳhsat</w>": 3249,
  "maqsūd</w>": 3250,
  "sivā.e</w>": 3251,
  "ij": 3252,
  "musht-e-ḳhāk</w>": 3253,
  "jūd</w>": 3254,
  "sūra": 3255,
  "hargiz</w>": 3256,
  "maane</w>": 3257,
  "ahl-e-nazar</w>": 3258,
  "sair</w>": 3259,
  "ram": 3260,
  "dūd</w>": 3261,
  "ġhuncha</w>": 3262,
  "vār": 3263,
  "ḳhūbāñ</w>": 3264,
  "vaz": 3265,
  ".i": 3266,
  "az</w>": 3267,
  "gāñ</w>": 3268,
  "majlis</w>": 3269,
  "sāhib</w>": 3270,
  "ziyā": 3271,
  "muf": 3272,
  "lis</w>": 3273,
  "bure</w>": 3274,
  "khi": 3275,
  "hāl-e-": 3276,
  "q-": 3277,
  "giraf": 3278,
  "sarv</w>": 3279,
  "mānind</w>": 3280,
  "pyāre</w>": 3281,
  "haq-": 3282,
  "muhī": 3283,
  "ḳhālī</w>": 3284,
  "parde</w>": 3285,
  "āzmā</w>": 3286,
  "mudda.ā</w>": 3287,
  "marnā</w>": 3288,
  "banā.e</w>": 3289,
  "bigaḍ</w>": 3290,
  "bevafā</w>": 3291,
  "faqīroñ</w>": 3292,
  "chāhte</w>": 3293,
  "ba-rañg-e-": 3294,
  "sarāpā</w>": 3295,
  "vagarna</w>": 3296,
  "dil-e-be-": 3297,
  "rakhtā</w>": 3298,
  "bandagī</w>": 3299,
  "hiye</w>": 3300,
  "jānūñ</w>": 3301,
  "uupar</w>": 3302,
  "ḳhātir": 3303,
  "bajā</w>": 3304,
  "nikalte</w>": 3305,
  "anjā": 3306,
  "sahl</w>": 3307,
  "barsoñ</w>": 3308,
  "laḳht-e-": 3309,
  "jaisī</w>": 3310,
  "yān</w>": 3311,
  "hairān</w>": 3312,
  "māl</w>": 3313,
  "ġhaflat</w>": 3314,
  "iztirāb</w>": 3315,
  "rakhne</w>": 3316,
  "kisū</w>": 3317,
  "nādān</w>": 3318,
  "qabr</w>": 3319,
  "ishq-e-": 3320,
  "aġh": 3321,
  "sar-": 3322,
  "anjām</w>": 3323,
  "pa</w>": 3324,
  "lau": 3325,
  "yo</w>": 3326,
  "par-e-": 3327,
  "musta": 3328,
  "hoñge</w>": 3329,
  "bāz</w>": 3330,
  "jamāl-e-": 3331,
  "khultīñ</w>": 3332,
  "zo.af</w>": 3333,
  "tamā": 3334,
  "b-": 3335,
  "ma</w>": 3336,
  "āshiqī</w>": 3337,
  "ālam-": 3338,
  "qatra-e-": 3339,
  "mizha</w>": 3340,
  "siyāh</w>": 3341,
  "eh": 3342,
  "līñ</w>": 3343,
  "barham</w>": 3344,
  "karnā</w>": 3345,
  "hove</w>": 3346,
  "darāz</w>": 3347,
  "ze</w>": 3348,
  "mizha-e-": 3349,
  "parhe": 3350,
  "sht</w>": 3351,
  "yaa": 3352,
  "girya-e-": 3353,
  "ḳhās</w>": 3354,
  "cha</w>": 3355,
  "yahīñ</w>": 3356,
  "sharminda</w>": 3357,
  "ruḳhsār</w>": 3358,
  "āfāq</w>": 3359,
  "āshufta-": 3360,
  "var-e-": 3361,
  "insā": 3362,
  "tah-e-": 3363,
  "bāl</w>": 3364,
  "bāl-o-": 3365,
  "palak</w>": 3366,
  "tuk": 3367,
  "panja-e-": 3368,
  "mizhgāñ</w>": 3369,
  "tarī</w>": 3370,
  "āhista</w>": 3371,
  "gah-e-": 3372,
  "'mī": 3373,
  "ġhar": 3374,
  ".iiñ</w>": 3375,
  "tad": 3376,
  "lii": 3377,
  "muu": 3378,
  "ñd</w>": 3379,
  "ya.anī</w>": 3380,
  "ārām</w>": 3381,
  "tohmat</w>": 3382,
  "muḳh": 3383,
  "au": 3384,
  "chhe</w>": 3385,
  "im": 3386,
  "ka.aba</w>": 3387,
  "qib": 3388,
  "kūche</w>": 3389,
  "masjid</w>": 3390,
  "ḳhir": 3391,
  "hāsil</w>": 3392,
  "muñ": 3393,
  "dīdār</w>": 3394,
  "tuuñ</w>": 3395,
  "taklī": 3396,
  "mol</w>": 3397,
  "qāmat</w>": 3398,
  "ġhulām</w>": 3399,
  "ā.a": 3400,
  "ḳhām</w>": 3401,
  "aa.e": 3402,
  "ḳhur": 3403,
  "pūchhte</w>": 3404,
  "dair</w>": 3405,
  "tark</w>": 3406,
  "lām</w>": 3407,
  "paa": 3408,
  "musībat</w>": 3409,
  "kār-": 3410,
  "dash": 3411,
  "pās-e-": 3412,
  "iz": 3413,
  "kin</w>": 3414,
  "havās</w>": 3415,
  "huzūr</w>": 3416,
  "shikār</w>": 3417,
  "partav-e-": 3418,
  "mahtāb</w>": 3419,
  "zūr</w>": 3420,
  "nūr</w>": 3421,
  "duurī</w>": 3422,
  "sūr</w>": 3423,
  "darvāza</w>": 3424,
  "māh-e-": 3425,
  "chuur</w>": 3426,
  "sha</w>": 3427,
  "jūr</w>": 3428,
  "shart-e-": 3429,
  "ḳhuuñ</w>": 3430,
  "girānī</w>": 3431,
  "sitam-": 3432,
  "thaam</w>": 3433,
  "ā.iye</w>": 3434,
  "tāla-e-": 3435,
  "zuleḳh": 3436,
  "azī": 3437,
  "mast</w>": 3438,
  "inti": 3439,
  "dikhā": 3440,
  "veñge</w>": 3441,
  "iztirāb-e-": 3442,
  "asīrī</w>": 3443,
  "dām</w>": 3444,
  "salī": 3445,
  "shā.": 3446,
  "pech": 3447,
  "musav": 3448,
  "maġh": 3449,
  "rūr</w>": 3450,
  "yat</w>": 3451,
  "tāsīr</w>": 3452,
  "bāb-e-": 3453,
  "ġhunche</w>": 3454,
  "āz": 3455,
  "lazzat</w>": 3456,
  "ḳhāti": 3457,
  "añgu": 3458,
  "dāni": 3459,
  "gaa": 3460,
  "behtar</w>": 3461,
  "naqsh</w>": 3462,
  "qū": 3463,
  "taaza</w>": 3464,
  "sote</w>": 3465,
  "veñ</w>": 3466,
  "fare": 3467,
  "yegā</w>": 3468,
  "dhu": 3469,
  "sa.ī</w>": 3470,
  "gin": 3471,
  "deñge</w>": 3472,
  "dildār</w>": 3473,
  "dikhāyā</w>": 3474,
  "garm-": 3475,
  "saktā</w>": 3476,
  ".a-": 3477,
  "uthāyā</w>": 3478,
  "gum-": 3479,
  "mah</w>": 3480,
  "tas": 3481,
  "līm-e-": 3482,
  "tāqat</w>": 3483,
  "shish</w>": 3484,
  "ashk-e-": 3485,
  "kushta-e-": 3486,
  "ġhai": 3487,
  "dam-ba-dam</w>": 3488,
  "ranj</w>": 3489,
  "rotā</w>": 3490,
  "heñ</w>": 3491,
  "ġham": 3492,
  "gashta</w>": 3493,
  "qī</w>": 3494,
  "ḳhvāhi": 3495,
  "sh-": 3496,
  "mand</w>": 3497,
  "ġhairat-e-": 3498,
  "jar": 3499,
  "as</w>": 3500,
  "chh</w>": 3501,
  "rashk-e-": 3502,
  "nihā": 3503,
  "qai": 3504,
  "par-": 3505,
  "fishānī</w>": 3506,
  "shamshīr</w>": 3507,
  "zindagānī</w>": 3508,
  "mehrbānī</w>": 3509,
  "dhokā</w>": 3510,
  "ārzū": 3511,
  "payām</w>": 3512,
  "cho": 3513,
  "lat</w>": 3514,
  "fat</w>": 3515,
  "tasi": 3516,
  "ḳhas": 3517,
  "tagī</w>": 3518,
  "kal": 3519,
  "pahuñch": 3520,
  "ḳhal": 3521,
  "vale</w>": 3522,
  "pat</w>": 3523,
  "yyat</w>": 3524,
  "be-sar-o-": 3525,
  "faqī": 3526,
  "yān-e-": 3527,
  "dostāñ</w>": 3528,
  "band-e-": 3529,
  ".ār</w>": 3530,
  "zarra</w>": 3531,
  "hūr</w>": 3532,
  "nu": 3533,
  "līm</w>": 3534,
  "sho.ala</w>": 3535,
  "barq-e-": 3536,
  "ḳhira": 3537,
  "man-e-": 3538,
  "tūr</w>": 3539,
  "parta": 3540,
  ".im</w>": 3541,
  "yaksar</w>": 3542,
  "shikas": 3543,
  "fah": 3544,
  "za</w>": 3545,
  "c": 3546,
  "fa</w>": 3547,
  "ma.anī</w>": 3548,
  "aadam</w>": 3549,
  "sūrat-e-": 3550,
  "īs": 3551,
  "jas": 3552,
  "lāk</w>": 3553,
  "shart</w>": 3554,
  "tā-ba-": 3555,
  "nashe</w>": 3556,
  "hamī</w>": 3557,
  "biich</w>": 3558,
  "thoḍī</w>": 3559,
  "nāzu": 3560,
  "shū": 3561,
  "hāñ</w>": 3562,
  "zard</w>": 3563,
  "num": 3564,
  "ā.ish</w>": 3565,
  "intiḳhāb</w>": 3566,
  "ḳhāna-ḳharāb</w>": 3567,
  "jhe": 3568,
  "shar": 3569,
  "rote</w>": 3570,
  "āb-": 3571,
  "shīr</w>": 3572,
  "numūd</w>": 3573,
  "val</w>": 3574,
  "diin</w>": 3575,
  "jhi": 3576,
  "ḳhush": 3577,
  "likhnā</w>": 3578,
  "pas</w>": 3579,
  "gauhar-e-": 3580,
  "put": 3581,
  "ḳhud-ārā</w>": 3582,
  "rasm-e-": 3583,
  "dilbar": 3584,
  "uḍte</w>": 3585,
  "mehr</w>": 3586,
  "vāqi": 3587,
  "kinā": 3588,
  "ishāra</w>": 3589,
  "laatā</w>": 3590,
  "dīvār-e-": 3591,
  "nazāra</w>": 3592,
  "tishna-e-": 3593,
  "kāñ": 3594,
  "āñdhiyoñ</w>": 3595,
  "irā": 3596,
  "jaltā</w>": 3597,
  "'vasīm'</w>": 3598,
  "doh": 3599,
  "paate</w>": 3600,
  "raste</w>": 3601,
  "daalī</w>": 3602,
  "ḍne</w>": 3603,
  "samajhtā</w>": 3604,
  "rishtoñ</w>": 3605,
  "mahsūs</w>": 3606,
  "faisla</w>": 3607,
  "ḳhilāf</w>": 3608,
  "safā.ī</w>": 3609,
  "bharo": 3610,
  "shāmil</w>": 3611,
  "fitrat</w>": 3612,
  "bārish</w>": 3613,
  "ārne</w>": 3614,
  "mil": 3615,
  "mazā": 3616,
  "ḳhayā": 3617,
  ",</w>": 3618,
  "dushmanī</w>": 3619,
  "guzārī</w>": 3620,
  "bevafā.ī</w>": 3621,
  "qatre</w>": 3622,
  "baḍh": 3623,
  "samun": 3624,
  "bichha": 3625,
  "lātā</w>": 3626,
  "maa": 3627,
  "mas.ala</w>": 3628,
  "ē": 3629,
  "mohabbatoñ</w>": 3630,
  "cheh": 3631,
  "añdher": 3632,
  "sam": 3633,
  "dhyān</w>": 3634,
  "andar</w>": 3635,
  "udāsī</w>": 3636,
  "samajhte</w>": 3637,
  "apnoñ</w>": 3638,
  "chalnā</w>": 3639,
  "milegā</w>": 3640,
  "rauna": 3641,
  "foñ</w>": 3642,
  "ā.at</w>": 3643,
  "zid</w>": 3644,
  "jaarī</w>": 3645,
  "uḍā": 3646,
  "haus": 3647,
  "letā</w>": 3648,
  "sahrā-e-": 3649,
  "pyārī</w>": 3650,
  "batā.e</w>": 3651,
  "bejā</w>": 3652,
  "himmat</w>": 3653,
  "ka.ī</w>": 3654,
  "chāh": 3655,
  "shā</w>": 3656,
  "ta.alluq</w>": 3657,
  "tuut</w>": 3658,
  "taqā": 3659,
  "purānā</w>": 3660,
  "dushvār</w>": 3661,
  "rakhnā</w>": 3662,
  "ap": 3663,
  "dāb-e-": 3664,
  "rishte</w>": 3665,
  "bharam</w>": 3666,
  "jān": 3667,
  "ñe</w>": 3668,
  "pahchā": 3669,
  "nibhā": 3670,
  "hānā</w>": 3671,
  "makān</w>": 3672,
  "bhīg": 3673,
  "bahāna</w>": 3674,
  "banā": 3675,
  "bad-gumāñ</w>": 3676,
  "liyoñ</w>": 3677,
  "chhat</w>": 3678,
  "udā": 3679,
  "siyoñ</w>": 3680,
  "maslahat</w>": 3681,
  "salta": 3682,
  "chch": 3683,
  "khaa.ī</w>": 3684,
  "bas": 3685,
  "hau": 3686,
  "jiite</w>": 3687,
  "jan": 3688,
  "taj": 3689,
  "aba</w>": 3690,
  "shish-e-": 3691,
  "nazr-e-": 3692,
  "jām</w>": 3693,
  "ehtiyā": 3694,
  "rīñ</w>": 3695,
  "ashk-": 3696,
  "uñg": 3697,
  "samundaroñ</w>": 3698,
  "lahje</w>": 3699,
  "samaj": 3700,
  "taf": 3701,
  "sho.ale</w>": 3702,
  "khul</w>": 3703,
  "chor</w>": 3704,
  "jā.ūñgā</w>": 3705,
  "shidda": 3706,
  "dastak</w>": 3707,
  "moḍ</w>": 3708,
  "dast-o-": 3709,
  "zarūrī</w>": 3710,
  "lāt</w>": 3711,
  "sāñsoñ</w>": 3712,
  "basā</w>": 3713,
  "jabr</w>": 3714,
  "jaz": 3715,
  "numā</w>": 3716,
  "qad</w>": 3717,
  "pair": 3718,
  "gharoñ</w>": 3719,
  "ġhazal-": 3720,
  "da.avā</w>": 3721,
  "dikhlā</w>": 3722,
  "dūñgā</w>": 3723,
  "girā</w>": 3724,
  "chalne</w>": 3725,
  "shāḳh-e-": 3726,
  "tanh": 3727,
  "ā.i": 3728,
  "kāmyā": 3729,
  "dukh</w>": 3730,
  "koshish</w>": 3731,
  "tasal": 3732,
  "khāne</w>": 3733,
  "pāoge</w>": 3734,
  "sadā": 3735,
  "nikāl</w>": 3736,
  "bahte</w>": 3737,
  "chal": 3738,
  "tīñ</w>": 3739,
  "uu": 3740,
  "zavā": 3741,
  "buz": 3742,
  "dhūñd</w>": 3743,
  "charāġhoñ</w>": 3744,
  "nazar-": 3745,
  "ehsās</w>": 3746,
  "shab": 3747,
  "vi": 3748,
  "ḳhushk</w>": 3749,
  "bisāt-e-": 3750,
  "rakkh": 3751,
  "lamhoñ</w>": 3752,
  "iḳhti": 3753,
  "batāte</w>": 3754,
  "tuutī</w>": 3755,
  "bachchoñ</w>": 3756,
  "kahānī</w>": 3757,
  "duubā</w>": 3758,
  "imtihān</w>": 3759,
  "bad": 3760,
  "pech-o-ḳham</w>": 3761,
  "zinda": 3762,
  "tār": 3763,
  "bebā": 3764,
  "paatā</w>": 3765,
  "ġham-ḳh": 3766,
  "vārī</w>": 3767,
  "kārī</w>": 3768,
  "tay": 3769,
  "yārī</w>": 3770,
  "zārī</w>": 3771,
  "aa.egā</w>": 3772,
  "nūñ</w>": 3773,
  "bho": 3774,
  "lī-": 3775,
  "nishā": 3776,
  "ā.ūñ</w>": 3777,
  "ḳhaar</w>": 3778,
  "'farāz'</w>": 3779,
  "aa.uuñ</w>": 3780,
  "id</w>": 3781,
  "shanās</w>": 3782,
  "garche</w>": 3783,
  "supur": 3784,
  "dagī</w>": 3785,
  "lāmī</w>": 3786,
  "chāhat</w>": 3787,
  "thakan</w>": 3788,
  "the": 3789,
  "allāh</w>": 3790,
  "pāgal</w>": 3791,
  "basta</w>": 3792,
  "dat</w>": 3793,
  "faq": 3794,
  "ake": 3795,
  "raazī</w>": 3796,
  "jumbish</w>": 3797,
  "rañj</w>": 3798,
  "bāzār</w>": 3799,
  "qab": 3800,
  "zat</w>": 3801,
  "kāñ</w>": 3802,
  "paimāñ</w>": 3803,
  "ehsāñ</w>": 3804,
  "tavaqq": 3805,
  "pukāre</w>": 3806,
  "sar-ba-": 3807,
  "mausam-e-": 3808,
  "ajna": 3809,
  "rabt</w>": 3810,
  "taktā</w>": 3811,
  "siyah-": 3812,
  "farosh</w>": 3813,
  "ā.il</w>": 3814,
  "sarv-": 3815,
  "shabistāñ</w>": 3816,
  "makīñ</w>": 3817,
  "gardi": 3818,
  "kahā": 3819,
  "bāl": 3820,
  "jāoge</w>": 3821,
  "takalluf</w>": 3822,
  "hijāb</w>": 3823,
  "shoñ</w>": 3824,
  "kaafī</w>": 3825,
  "rāb</w>": 3826,
  "hāl-e-dil</w>": 3827,
  "qāsi": 3828,
  "thikā": 3829,
  "purāne</w>": 3830,
  "lau</w>": 3831,
  "ġhārat-": 3832,
  "ḳhazā": 3833,
  "chārā": 3834,
  "manā": 3835,
  "lazzat-e-": 3836,
  "mahrū": 3837,
  "sharmin": 3838,
  "dhaḍak": 3839,
  "uj": 3840,
  "mileñ</w>": 3841,
  "farishtoñ</w>": 3842,
  "khīñche</w>": 3843,
  "ḳhirām</w>": 3844,
  "lāla": 3845,
  "qurb</w>": 3846,
  "lib</w>": 3847,
  "kun": 3848,
  "dan</w>": 3849,
  "raakh</w>": 3850,
  "piyā</w>": 3851,
  "va</w>": 3852,
  "sauñ": 3853,
  "ḳhil": 3854,
  "āvā": 3855,
  "darvā": 3856,
  "ġhalat</w>": 3857,
  "rifāqat</w>": 3858,
  "maare</w>": 3859,
  "gau": 3860,
  "tam</w>": 3861,
  "mad</w>": 3862,
  "lar": 3863,
  "pahuñ": 3864,
  "chī</w>": 3865,
  "ġham-ḳhvār</w>": 3866,
  "nādi": 3867,
  "sub.h-": 3868,
  "nik.hat-e-": 3869,
  "ġhuncha": 3870,
  "iḳh": 3871,
  "lāzim</w>": 3872,
  "ro.": 3873,
  "batoñ</w>": 3874,
  "char": 3875,
  "qat-e-": 3876,
  "ba.a": 3877,
  "ī-e-": 3878,
  "hañste</w>": 3879,
  "kho.e</w>": 3880,
  "sikan": 3881,
  "zo.a": 3882,
  "mujhī</w>": 3883,
  "shab-e-firāq</w>": 3884,
  "nā-gahāñ</w>": 3885,
  "ḳhuld</w>": 3886,
  "uf</w>": 3887,
  "misāl</w>": 3888,
  "ba-zāhir</w>": 3889,
  "ḍnā</w>": 3890,
  "il</w>": 3891,
  "sāha": 3892,
  "tiyoñ</w>": 3893,
  "adāvat</w>": 3894,
  "dushmanoñ</w>": 3895,
  ".h</w>": 3896,
  "dayār</w>": 3897,
  "jañ": 3898,
  "luut</w>": 3899,
  "qāfi": 3900,
  "sharīk</w>": 3901,
  "misāl-e-": 3902,
  "manzileñ</w>": 3903,
  "parvā": 3904,
  "kīmi": 3905,
  "saayā</w>": 3906,
  "taufīq</w>": 3907,
  "musal": 3908,
  "zāoñ</w>": 3909,
  "hotīñ</w>": 3910,
  "gī-e-": 3911,
  "qul": 3912,
  "jhal</w>": 3913,
  "urī</w>": 3914,
  "duā.eñ</w>": 3915,
  "palat</w>": 3916,
  "sakūñ</w>": 3917,
  "e'": 3918,
  "tirā": 3919,
  "zā.eñ</w>": 3920,
  "bāġhbāñ</w>": 3921,
  "shā.ir</w>": 3922,
  "barpā</w>": 3923,
  "ulāñ</w>": 3924,
  "havā-e-": 3925,
  "tahī</w>": 3926,
  "dda": 3927,
  "rāhoñ</w>": 3928,
  "insāf</w>": 3929,
  "hāzir</w>": 3930,
  "āshnā.ī</w>": 3931,
  "utthā</w>": 3932,
  "diyoñ</w>": 3933,
  "dā.ī</w>": 3934,
  "vahsha": 3935,
  "jiye</w>": 3936,
  "chaap</w>": 3937,
  "takrār</w>": 3938,
  "ta.amīr</w>": 3939,
  "mār</w>": 3940,
  "ta-": 3941,
  "e'timā": 3942,
  "bantī</w>": 3943,
  "uḍī</w>": 3944,
  "farāġhat</w>": 3945,
  "ḳhudā-": 3946,
  "aab": 3947,
  "ġhair-": 3948,
  "mohab": 3949,
  "purānī</w>": 3950,
  "rifā": 3951,
  "e'ti": 3952,
  "rishta-e-": 3953,
  "bahā": 3954,
  "hisā": 3955,
  "bhūlne</w>": 3956,
  "nazdīk</w>": 3957,
  "āmad-e-": 3958,
  "shām</w>": 3959,
  "bar-": 3960,
  "kii": 3961,
  "masā": 3962,
  "dīvār-o-dar</w>": 3963,
  "lāh</w>": 3964,
  "izzat</w>": 3965,
  "bhalī</w>": 3966,
  "nagar</w>": 3967,
  "'jigar'</w>": 3968,
  "vat</w>": 3969,
  "shah</w>": 3970,
  "'jālib'</w>": 3971,
  "baḍhe</w>": 3972,
  "gumān</w>": 3973,
  "yaqīn</w>": 3974,
  "ma.asūm</w>": 3975,
  "zaḳh": 3976,
  "ḳhurshī": 3977,
  "vash</w>": 3978,
  "phūloñ</w>": 3979,
  "bā-": 3980,
  "sak": 3981,
  "ḳht</w>": 3982,
  "meh": 3983,
  "parast</w>": 3984,
  "gare": 3985,
  "ġhanī": 3986,
  "bachch": 3987,
  "zarre</w>": 3988,
  "arsa-e-": 3989,
  "rāñ</w>": 3990,
  "rus": 3991,
  "sard</w>": 3992,
  "van</w>": 3993,
  "ya-e-": 3994,
  "tasvī": 3995,
  "ni-e-": 3996,
  ".ha": 3997,
  "daulat</w>": 3998,
  "be-kār</w>": 3999,
  "jagā": 4000,
  "jaadū</w>": 4001,
  "mus": 4002,
  "ruu": 4003,
  "tārī": 4004,
  "sul": 4005,
  "nag": 4006,
  "sahrā": 4007,
  "sannātā</w>": 4008,
  "nashīñ</w>": 4009,
  "ḳhāk</w>": 4010,
  "chaman-": 4011,
  "begā": 4012,
  "sher": 4013,
  "tāoñ</w>": 4014,
  "intiḳhā": 4015,
  "tam": 4016,
  "-o-gul</w>": 4017,
  "bīh</w>": 4018,
  "jah": 4019,
  "āla": 4020,
  "jīvan</w>": 4021,
  "nātā</w>": 4022,
  "zabān</w>": 4023,
  "nain</w>": 4024,
  "taskīn</w>": 4025,
  "khoyā</w>": 4026,
  "lā.e</w>": 4027,
  "bhañ": 4028,
  "ras</w>": 4029,
  "āzā": 4030,
  "dī-e-": 4031,
  "jam": 4032,
  "zeh": 4033,
  "'ġhālib'</w>": 4034,
  "'anīs'</w>": 4035,
  "parvā</w>": 4036,
  "rā.ī</w>": 4037,
  ".h-e-": 4038,
  "ġhairoñ</w>": 4039,
  "baḳhsh</w>": 4040,
  "bujhe</w>": 4041,
  "bāt</w>": 4042,
  "qaid-e-": 4043,
  "chukī</w>": 4044,
  "armāñ</w>": 4045,
  "taman": 4046,
  "fazā.eñ</w>": 4047,
  "nigah": 4048,
  "tāza</w>": 4049,
  "tīr": 4050,
  "shikast</w>": 4051,
  "bāti": 4052,
  "īmāñ</w>": 4053,
  "kashma": 4054,
  "hin": 4055,
  "dū</w>": 4056,
  "musalmāñ</w>": 4057,
  "rūh-e-": 4058,
  "'mus.hafī'</w>": 4059,
  "kir": 4060,
  "talab": 4061,
  "shām-e-ġham</w>": 4062,
  "miltī</w>": 4063,
  "saañ": 4064,
  "ahr</w>": 4065,
  "zamīnoñ</w>": 4066,
  "nashī": 4067,
  "jū": 4068,
  "mauja-e-": 4069,
  "barsāt</w>": 4070,
  "zir</w>": 4071,
  "yagā": 4072,
  "tarab</w>": 4073,
  "aflāk</w>": 4074,
  "taḳht</w>": 4075,
  "ilaaj</w>": 4076,
  "ehti": 4077,
  "ḳhatra</w>": 4078,
  "ḳhatre</w>": 4079,
  "'iqbāl'</w>": 4080,
  "jauhar</w>": 4081,
  "phail</w>": 4082,
  "maz": 4083,
  "x": 4084,
  "sm</w>": 4085,
  "halqa-e-": 4086,
  "halqe</w>": 4087,
  "sāz": 4088,
  "ḳhilā": 4089,
  "sām": 4090,
  "asī": 4091,
  "ḳhamoshī</w>": 4092,
  "zām</w>": 4093,
  "shāh-e-": 4094,
  "kā.e": 4095,
  "tabassum</w>": 4096,
  "tapā": 4097,
  "mehmāñ</w>": 4098,
  "pareshān</w>": 4099,
  "iyāñ</w>": 4100,
  "akele</w>": 4101,
  "āñ": 4102,
  "gan": 4103,
  "sāñ": 4104,
  "señ</w>": 4105,
  "khilau": 4106,
  "jag</w>": 4107,
  "dhī": 4108,
  "jii": 4109,
  "sin": 4110,
  "marte</w>": 4111,
  "tuu": 4112,
  "beach</w>": 4113,
  "hamrāh</w>": 4114,
  "gal</w>": 4115,
  "dāstā": 4116,
  "mān</w>": 4117,
  "pattoñ</w>": 4118,
  "lageñge</w>": 4119,
  "ḳhāli": 4120,
  "pareshānī</w>": 4121,
  "da-o-": 4122,
  "diiñ</w>": 4123,
  "vah": 4124,
  "āñgan</w>": 4125,
  "dast-": 4126,
  "ārā": 4127,
  "sunñe</w>": 4128,
  "āsmān</w>": 4129,
  "āstīñ</w>": 4130,
  ".ā": 4131,
  "do-": 4132,
  "ḳhār</w>": 4133,
  "manoñ</w>": 4134,
  "rafū</w>": 4135,
  "roke</w>": 4136,
  "ḍiyoñ</w>": 4137,
  "narm</w>": 4138,
  "haz": 4139,
  "fā.e": 4140,
  "dilā": 4141,
  "dho": 4142,
  "qīmat</w>": 4143,
  "milte</w>": 4144,
  "da.a": 4145,
  "tād</w>": 4146,
  "ras": 4147,
  "bula": 4148,
  "ātish-": 4149,
  "no</w>": 4150,
  "dūs": 4151,
  "nā-āshnā</w>": 4152,
  "shād</w>": 4153,
  "pesha</w>": 4154,
  "dhūñ": 4155,
  "er</w>": 4156,
  "soz</w>": 4157,
  "kāro": 4158,
  "naqd-e-": 4159,
  "fusūñ</w>": 4160,
  "marī": 4161,
  "shaḳh": 4162,
  "samjhā</w>": 4163,
  "bandoñ</w>": 4164,
  "dars</w>": 4165,
  "likhūñ</w>": 4166,
  "janā": 4167,
  "māt</w>": 4168,
  "farmā": 4169,
  "qau": 4170,
  "ḍtā</w>": 4171,
  "baḳht</w>": 4172,
  "baz": 4173,
  "añgḍā.ī</w>": 4174,
  "ūñ-": 4175,
  "yy": 4176,
  "baal</w>": 4177,
  "khoñ</w>": 4178,
  "hame": 4179,
  "shiyoñ</w>": 4180,
  "val": 4181,
  "lat-e-": 4182,
  "barg-e-gul</w>": 4183,
  "ag": 4184,
  "'mohsin'</w>": 4185,
  "dhūñdā</w>": 4186,
  "ba-juz</w>": 4187,
  "baasī</w>": 4188,
  "ġhu": 4189,
  "mār-e-": 4190,
  "ujaaḍ</w>": 4191,
  "pārsā.ī</w>": 4192,
  "maqām-e-": 4193,
  "bulan": 4194,
  "khaḍe</w>": 4195,
  "aa.ine</w>": 4196,
  "vaj": 4197,
  "toh": 4198,
  "āñd": 4199,
  "patt": 4200,
  "haroñ</w>": 4201,
  "jaḍ</w>": 4202,
  "mahv-e-": 4203,
  "dar-o-dīvār</w>": 4204,
  ".at-e-": 4205,
  "iz.hār</w>": 4206,
  "vaj.h-e-": 4207,
  "rahīñ</w>": 4208,
  "hoñgī</w>": 4209,
  "tuj": 4210,
  "shak": 4211,
  "paak</w>": 4212,
  "karūñgā</w>": 4213,
  "nak</w>": 4214,
  "sho.ala-": 4215,
  "ut</w>": 4216,
  "afsurda</w>": 4217,
  "shoh": 4218,
  "afsā": 4219,
  "nām-e-": 4220,
  "chalegā</w>": 4221,
  "nas": 4222,
  "ijā": 4223,
  "sitāra</w>": 4224,
  "pesh-": 4225,
  "tuutā</w>": 4226,
  "jh</w>": 4227,
  "tabī": 4228,
  "ehsā": 4229,
  "chchā</w>": 4230,
  "bis": 4231,
  "rāz-": 4232,
  "bārī</w>": 4233,
  "il": 4234,
  "sīna-e-": 4235,
  "be-karāñ</w>": 4236,
  "daroñ</w>": 4237,
  "libā": 4238,
  "lash": 4239,
  "suḳhan-": 4240,
  "aar</w>": 4241,
  "fat": 4242,
  "fat-e-": 4243,
  "chaa": 4244,
  "uq-e-": 4245,
  "nat-e-": 4246,
  "zamā": 4247,
  "barah": 4248,
  "shaa": 4249,
  "shāk</w>": 4250,
  "qī": 4251,
  "ash": 4252,
  "mal": 4253,
  "ḳht-e-": 4254,
  "hāsi": 4255,
  "m-ba-": 4256,
  "raunaq-e-": 4257,
  "ir-e-": 4258,
  "sīmā": 4259,
  "sifat</w>": 4260,
  "fī": 4261,
  "havā": 4262,
  "sat</w>": 4263,
  "gird</w>": 4264,
  "fasl-e-": 4265,
  "chauñ": 4266,
  "jhoñ": 4267,
  "vahshī</w>": 4268,
  "paimān-e-": 4269,
  "mak</w>": 4270,
  "an": 4271,
  "shanā": 4272,
  "bantā</w>": 4273,
  "ak": 4274,
  "gauhar</w>": 4275,
  "rag</w>": 4276,
  "sitam": 4277,
  "ār-": 4278,
  "se": 4279,
  "kan</w>": 4280,
  "mehmān</w>": 4281,
  "paḍte</w>": 4282,
  "murġh-e-": 4283,
  "'zafar'</w>": 4284,
  "pāñch</w>": 4285,
  "bose</w>": 4286,
  "ḳhanj": 4287,
  "yaas</w>": 4288,
  "ġhamza</w>": 4289,
  "bāda-e-": 4290,
  "halā": 4291,
  "nāḳhun</w>": 4292,
  "anju": 4293,
  "qala": 4294,
  "ḳhāksārī</w>": 4295,
  "chāk</w>": 4296,
  "kīñ</w>": 4297,
  "mah-e-": 4298,
  "kāmil</w>": 4299,
  "uthā.ī</w>": 4300,
  "pā-e-": 4301,
  "biga": 4302,
  "nāma-bar</w>": 4303,
  "fitna-": 4304,
  "bosa</w>": 4305,
  "hāñ": 4306,
  "lā.ī</w>": 4307,
  "bahārī</w>": 4308,
  "charchā</w>": 4309,
  "shum": 4310,
  "sārī</w>": 4311,
  "ahvā": 4312,
  "ra.anā</w>": 4313,
  "sarv-e-": 4314,
  "ram</w>": 4315,
  "qā</w>": 4316,
  "lā.eñ</w>": 4317,
  "sāhib-e-": 4318,
  "ḳhāk": 4319,
  "vasl-e-": 4320,
  "ātish": 4321,
  "charḳh-e-": 4322,
  "manzūr</w>": 4323,
  "duni": 4324,
  "yā-e-": 4325,
  "dūñ</w>": 4326,
  "dilru": 4327,
  "ḳhudā.ī</w>": 4328,
  "ālam-e-": 4329,
  "j-e-": 4330,
  "dharā</w>": 4331,
  "paimā": 4332,
  "jalva</w>": 4333,
  "āma": 4334,
  "mastā": 4335,
  "mū</w>": 4336,
  "shakl-e-": 4337,
  "kāv": 4338,
  "dāġh-e-dil</w>": 4339,
  "charḳh</w>": 4340,
  "añge": 4341,
  "hav": 4342,
  "inā": 4343,
  "āshiq-e-": 4344,
  "kyūñki</w>": 4345,
  "f-e-zulf</w>": 4346,
  "mat-": 4347,
  "ah-e-": 4348,
  "mū-e-": 4349,
  "hāja": 4350,
  "tapish</w>": 4351,
  "rauzan</w>": 4352,
  "n'</w>": 4353,
  "rakhūñ</w>": 4354,
  "dījiye</w>": 4355,
  "āzur": 4356,
  "bāñd": 4357,
  "mard-e-": 4358,
  "ġham-e-furqat</w>": 4359,
  "kān-e-": 4360,
  "gesū-e-": 4361,
  "shab-": 4362,
  "ḳham</w>": 4363,
  "hash": 4364,
  "qud": 4365,
  "rab</w>": 4366,
  "jaada</w>": 4367,
  "shaah</w>": 4368,
  "mī-e-": 4369,
  "qoñ</w>": 4370,
  "bedād</w>": 4371,
  "mardu": 4372,
  "nargis-e-": 4373,
  "siyā": 4374,
  "āveñge</w>": 4375,
  "zab": 4376,
  "dām-e-": 4377,
  "fareb-e-": 4378,
  "garebā": 4379,
  "mehr-e-": 4380,
  "dānī</w>": 4381,
  "māl-e-": 4382,
  "nusḳha": 4383,
  "say": 4384,
  "ġhuncha-e-": 4385,
  "shāhid-e-": 4386,
  "ḳham-e-": 4387,
  "be-takalluf</w>": 4388,
  "hus": 4389,
  "ti-e-": 4390,
  "daa.im</w>": 4391,
  "vuuñ</w>": 4392,
  "gaahe</w>": 4393,
  "vaz.a</w>": 4394,
  "qaa.i": 4395,
  "fala": 4396,
  "āh-o-": 4397,
  "kaf-e-pā</w>": 4398,
  "taqrīr</w>": 4399,
  "sozan</w>": 4400,
  "lam</w>": 4401,
  "garm-e-": 4402,
  "īmā": 4403,
  "hañsā</w>": 4404,
  "chashma-e-": 4405,
  "āb-e-baqā</w>": 4406,
  "nigār</w>": 4407,
  "bistar</w>": 4408,
  "manī</w>": 4409,
  "shake": 4410,
  "ḳhudī</w>": 4411,
  "parda-": 4412,
  "sāġhar-e-": 4413,
  "bāda</w>": 4414,
  "daur-e-": 4415,
  "jalva-": 4416,
  "ḳhūn-e-jigar</w>": 4417,
  "hinā</w>": 4418,
  "jāni": 4419,
  "vaah</w>": 4420,
  "hañsā": 4421,
  "fari": 4422,
  "bāl-o-par</w>": 4423,
  "fau": 4424,
  "lād</w>": 4425,
  "vaisī</w>": 4426,
  "shoḳhī</w>": 4427,
  "uñ": 4428,
  "pech-o-tāb</w>": 4429,
  "ronā</w>": 4430,
  "parda-e-": 4431,
  "ain</w>": 4432,
  "sh-o-": 4433,
  "bul-": 4434,
  "saudā-e-": 4435,
  "sat-e-": 4436,
  "sam-e-": 4437,
  "ḳharī": 4438,
  "sarshār</w>": 4439,
  "āñ-": 4440,
  "gash": 4441,
  "chai": 4442,
  "maḳh": 4443,
  "jumbish-e-": 4444,
  "haqī": 4445,
  "sheva-e-": 4446,
  "tasavv": 4447,
  "uryāñ</w>": 4448,
  "pār": 4449,
  "naġh": 4450,
  "mard</w>": 4451,
  "chār</w>": 4452,
  "nūr-e-": 4453,
  "paiva": 4454,
  "ā.ūñgī</w>": 4455,
  "tish": 4456,
  "shahādat</w>": 4457,
  "ġh-e-": 4458,
  "taan</w>": 4459,
  "karvat</w>": 4460,
  "zā-": 4461,
  "ahī</w>": 4462,
  "be-dilī</w>": 4463,
  "'jaun'</w>": 4464,
  "ḳhayāl-e-yār</w>": 4465,
  "chāñd": 4466,
  "huuk</w>": 4467,
  "chheḍ": 4468,
  "mahram-e-": 4469,
  "'jau": 4470,
  "jā.iye</w>": 4471,
  "be-niyā": 4472,
  "karā": 4473,
  "āġhosh</w>": 4474,
  "ula": 4475,
  "bānī</w>": 4476,
  "jalva": 4477,
  "dalī": 4478,
  ".ī": 4479,
  "?": 4480,
  "sach": 4481,
  "surūr</w>": 4482,
  "baḳhshe</w>": 4483,
  ".ā</w>": 4484,
  "-hā-e-": 4485,
  "mai-ka": 4486,
  "furqat</w>": 4487,
  "fais": 4488,
  "jāve": 4489,
  "hasī": 4490,
  "yad</w>": 4491,
  "nazdī": 4492,
  "kamre</w>": 4493,
  "bāzī</w>": 4494,
  "chhī": 4495,
  "ta.al": 4496,
  "qāt</w>": 4497,
  "charāġh": 4498,
  "tañg": 4499,
  "muā": 4500,
  "mla</w>": 4501,
  "tāqat-e-": 4502,
  "shoḳhī-e-": 4503,
  "ā.ī": 4504,
  "mīr-e-": 4505,
  "!": 4506,
  "shohrat</w>": 4507,
  "ahāñ</w>": 4508,
  "mānī</w>": 4509,
  "yād</w>": 4510,
  "ānī</w>": 4511,
  "āḳhi": 4512,
  "kushāda</w>": 4513,
  "ishq-o-": 4514,
  "qaa.il</w>": 4515,
  "jazba-e-": 4516,
  "jānī</w>": 4517,
  "sānī</w>": 4518,
  "qurbān</w>": 4519,
  "nau": 4520,
  "fishāñ</w>": 4521,
  "nigāh-e-nāz</w>": 4522,
  "māj": 4523,
  "nazzāra</w>": 4524,
  "sāmnā</w>": 4525,
  "tajallī</w>": 4526,
  "naqā": 4527,
  "be-niyāzī</w>": 4528,
  "'hā": 4529,
  "haa.ī</w>": 4530,
  "ayyām</w>": 4531,
  "'hālī'</w>": 4532,
  "asrār</w>": 4533,
  "guftār</w>": 4534,
  "iltifāt</w>": 4535,
  "sabāt</w>": 4536,
  "har-e-": 4537,
  "lāla</w>": 4538,
  "kau": 4539,
  "shikva": 4540,
  "fit": 4541,
  "avva": 4542,
  "īr-e-": 4543,
  "rash": 4544,
  "dard-": 4545,
  "tab-e-": 4546,
  "hat-": 4547,
  "ḳhīr</w>": 4548,
  "tān-e-": 4549,
  "uzr-e-": 4550,
  "zā-e-": 4551,
  "jhag": 4552,
  "je": 4553,
  "ñdh": 4554,
  "ġhālib</w>": 4555,
  "vahshat-": 4556,
  "li-e-": 4557,
  "shorī": 4558,
  "'za": 4559,
  "zamānā</w>": 4560,
  "'a": 4561,
  "'dāġh'</w>": 4562,
  "zer": 4563,
  "nāsi": 4564,
  "vva": 4565,
  "farm": 4566,
  "tauf": 4567,
  "jin": 4568,
  "baqā</w>": 4569,
  "gāh-e-": 4570,
  "yūñ": 4571,
  "musā": 4572,
  "n-o-makāñ</w>": 4573,
  "firā": 4574,
  "payā": 4575,
  "kushā</w>": 4576,
  "mīr</w>": 4577,
  "pāk-": 4578,
  "kamāl-e-": 4579,
  "ḳhirman</w>": 4580,
  "farish": 4581,
  "hadī": 4582,
  "be-qar": 4583,
  "urū": 4584,
  "۔": 4585,
  "sar-tā-": 4586,
  "davā": 4587,
  "soz-o-": 4588,
  "jan</w>": 4589,
  "ḳhirad</w>": 4590,
  "malā": 4591,
  "ḳhākī</w>": 4592,
  "ḳhāshāk</w>": 4593,
  "sho.a": 4594,
  "gustā": 4595,
  "aq</w>": 4596,
  "am</w>": 4597,
  "masla": 4598,
  "be-ḳha": 4599,
  "tamāshā-e-": 4600,
  "āzādī</w>": 4601,
  "zunn": 4602,
  "nai": 4603,
  "'iqbāl": 4604,
  "gāhī</w>": 4605,
  "rū-": 4606,
  "humā</w>": 4607,
  "paikar": 4608,
  "sanam-": 4609,
  "tilism-e-": 4610,
  "huur</w>": 4611,
  "shoḳhi-e-": 4612,
  "zār-e-": 4613,
  "hastī-e-": 4614,
  "qābil</w>": 4615,
  "mubārak</w>": 4616,
  "lī'</w>": 4617,
  "naumī": 4618,
  "mi-e-": 4619,
  "kada</w>": 4620,
  "isht</w>": 4621,
  "panā": 4622,
  "āshkār</w>": 4623,
  "bāñdhā</w>": 4624,
  "maqā": 4625,
  "lāh-": 4626,
  "der": 4627,
  "nashā": 4628,
  "sar-o-": 4629,
  "vai": 4630,
  "hañg": 4631,
  "saḳh": 4632,
  "ḳhe": 4633,
  "ḳhudāyā</w>": 4634,
  "nafas-e-": 4635,
  "mer": 4636,
  "yām</w>": 4637,
  "kushā": 4638,
  "adā-e-": 4639,
  "asar-e-": 4640,
  "ā.ū": 4641,
  "aba": 4642,
  "āġhosh-e-": 4643,
  "v-e-": 4644,
  "sair-e-": 4645,
  "nii": 4646,
  "sāz-e-": 4647,
  "pech-o-": 4648,
  "pās": 4649,
  "mahra": 4650,
  "dars-e-": 4651,
  "hijāb-e-": 4652,
  "bandī</w>": 4653,
  "fai": 4654,
  "zān-e-": 4655,
  "rat-": 4656,
  "muhīt-e-": 4657,
  "naġhma-e-": 4658,
  "mukarrar</w>": 4659,
  "āmā": 4660,
  "vus.at-e-": 4661,
  "nikāle</w>": 4662,
  "nagī</w>": 4663,
  "hazrat</w>": 4664,
  "fāt</w>": 4665,
  "tajal": 4666,
  "nāt</w>": 4667,
  "chii": 4668,
  "mudām</w>": 4669,
  "ġhara": 4670,
  "hasīñ</w>": 4671,
  "tark-e-vafā</w>": 4672,
  "ḳhamo": 4673,
  "sharmā</w>": 4674,
  "huul</w>": 4675,
  "ġhaf": 4676,
  "taz": 4677,
  "thar": 4678,
  "sukh</w>": 4679,
  "jāda-e-": 4680,
  "fāq</w>": 4681,
  "mahsū": 4682,
  "būl</w>": 4683,
  "fitrat-e-": 4684,
  "zabā": 4685,
  "shā.er": 4686,
  "āshuf": 4687,
  "jalva-e-gul</w>": 4688,
  "hairā": 4689,
  "pashe": 4690,
  "sā.ī</w>": 4691,
  "hād</w>": 4692,
  "mum": 4693,
  "hairat-": 4694,
  "dimāġh-e-": 4695,
  "'firāq'</w>": 4696,
  "nigā": 4697,
  "shād": 4698,
  "kasī</w>": 4699,
  "bad-gumānī</w>": 4700,
  "be-kar": 4701,
  "zabānī</w>": 4702,
  "ma.asū": 4703,
  "visāl-e-": 4704,
  "sāġ": 4705,
  "rish": 4706,
  "taġhāfu": 4707,
  "betābī</w>": 4708,
  "nairañg-e-": 4709,
  "ġhurū": 4710,
  "shika": 4711,
  "raqa": 4712,
  "dar-parda</w>": 4713,
  "hayā": 4714,
  "imtiyā": 4715,
  "'firāq": 4716,
  "thikānā</w>": 4717,
  "ba-qadr-e-": 4718,
  "sūn-e-": 4719,
  "payām-e-": 4720,
  "ījā": 4721,
  "iztir": 4722,
  "vahm-o-": 4723,
  "jauhar-e-": 4724,
  "charā": 4725,
  "sho.ala-e-": 4726,
  "laf": 4727,
  "tālib-e-": 4728,
  "āhi": 4729,
  "ishā": 4730,
  "nik.ha": 4731,
  "bad-gu": 4732,
  "mushtāq-e-": 4733,
  "hasrat-e-dīdār</w>": 4734,
  "hui</w>": 4735,
  "siy": 4736,
  "āġhā": 4737,
  "hayāt-e-": 4738,
  "suḳha": 4739,
  "āhista-": 4740,
  "najāt</w>": 4741,
  "shar</w>": 4742,
  "barī</w>": 4743,
  "mubā": 4744,
  "shan</w>": 4745,
  "balā": 4746,
  "tabas": 4747,
  "tkā</w>": 4748,
  "do-ālam</w>": 4749,
  "uqda-e-": 4750,
  "thaa": 4751,
  "shnī</w>": 4752,
  "muqad": 4753,
  "āġho": 4754,
  "beh": 4755,
  "kuuñ</w>": 4756,
  "'valī'</w>": 4757,
  "suuñ</w>": 4758,
  "añkhi": 4759,
  "jyuuñ</w>": 4760,
  "mizā": 4761,
  "sajan</w>": 4762,
  "zulf": 4763,
  "añ": 4764,
  "mah-": 4765,
  "mushtāq</w>": 4766,
  "na.iiñ</w>": 4767,
  "bat-e-": 4768,
  "buujh</w>": 4769,
  "bāġh": 4770,
  "raqī": 4771,
  "siiñ</w>": 4772,
  "bā.i": 4773,
  "lazza": 4774,
  "imti": 4775,
  "guli": 4776,
  "āh</w>": 4777,
  "jaave</w>": 4778,
  "namak</w>": 4779,
  "namak-": 4780,
  "āhista-āhista</w>": 4781,
  "mukh</w>": 4782,
  "aañv</w>": 4783,
  "sābi": 4784,
  "sarsh": 4785,
  "farāz": 4786,
  "añdh": 4787,
  "kahūñgā</w>": 4788,
  "lai": 4789,
  "nargi": 4790,
  "gudā": 4791,
  "maz.ha": 4792,
  "lim</w>": 4793,
  "cha-e-": 4794,
  "dil-o-": 4795,
  "uñ</w>": 4796,
  "raqīboñ</w>": 4797,
  "nab": 4798,
  "sita": 4799,
  "ḳhāna-vīrānī</w>": 4800,
  "jā-e-": 4801,
  "pasa": 4802,
  "unh": 4803,
  "'dāġh": 4804,
  "musī": 4805,
  "hasrat-": 4806,
  "nabz-e-": 4807,
  "zim</w>": 4808,
  "fasānā</w>": 4809,
  "jahan": 4810,
  "fā.eda</w>": 4811,
  "rañj-e-": 4812,
  "zii": 4813,
  "ilā": 4814,
  "sako</w>": 4815,
  "sarmā": 4816,
  "ir</w>": 4817,
  "'akbar'</w>": 4818,
  "havas-e-": 4819,
  "pū": 4820,
  "vajū": 4821,
  "'akbar": 4822,
  "dimā": 4823,
  "bul": 4824,
  "aari": 4825,
  "vahshat-e-": 4826,
  "qa-e-": 4827,
  "ġhat</w>": 4828,
  "jā.e": 4829,
  "lūm</w>": 4830,
  "mukar": 4831,
  "vafā.ī</w>": 4832,
  "ap</w>": 4833,
  "pā-": 4834,
  "hanūz</w>": 4835,
  "eid</w>": 4836,
  "'nasīr'</w>": 4837,
  "nd-e-": 4838,
  "laḍkā</w>": 4839,
  "'nājī'</w>": 4840,
  "his": 4841,
  "shīrī": 4842,
  "bāl-": 4843,
  "mor</w>": 4844,
  "junūñ-": 4845,
  "jā.": 4846,
  "sabza</w>": 4847,
  ".h": 4848,
  "zaḳh</w>": 4849,
  "mus.ha": 4850,
  "rar</w>": 4851,
  "bhīgtā</w>": 4852,
  "para": 4853,
  "zi-e-": 4854,
  "'asad'</w>": 4855,
  "i-e-": 4856,
  "mauj-e-sharāb</w>": 4857,
  "kashā": 4858,
  "'ġhālib'-e-": 4859,
  "jeb-e-": 4860,
  "ā.ina</w>": 4861,
  "hunūz</w>": 4862,
  "ḳhamyā": 4863,
  "nāla</w>": 4864,
  "pusht-e-": 4865,
  "miz": 4866,
  "sil": 4867,
  "dan": 4868,
  "suvaidā</w>": 4869,
  "yū": 4870,
  "hairat-e-": 4871,
  "lib-e-": 4872,
  "-hā</w>": 4873,
  "mizh": 4874,
  "sāqi": 4875,
  "'asad": 4876,
  "mizhgān-e-": 4877,
  "parvāz-e-": 4878,
  "uthā.iye</w>": 4879,
  "suvai": 4880,
  "fish": 4881,
  "kāġha": 4882,
  "nī-e-sham.a</w>": 4883,
  "zindagā": 4884,
  "ġhāñ</w>": 4885,
  "sta-": 4886,
  "taġhā": 4887,
  "afso": 4888,
  "justuj": 4889,
  "purs": 4890,
  "taskī": 4891,
  "mak-": 4892,
  "charāġh-e-kushta</w>": 4893,
  "ir-o-": 4894,
  "mash.": 4895,
  "jun": 4896,
  "roz": 4897,
  "rū-ba-": 4898,
  "o-": 4899,
  "bāñdhte</w>": 4900,
  "pairā": 4901,
  "rā.e": 4902,
  "gū</w>": 4903,
  "uuñ</w>": 4904,
  "'nā": 4905,
  "ngī</w>": 4906,
  "labī</w>": 4907,
  "mubta": 4908,
  "āg": 4909,
  "bik": 4910,
  "kit": 4911,
  "bhejī</w>": 4912,
  "ḳhāmo": 4913,
  "farmā.iyegā</w>": 4914,
  "kr-e-": 4915
}